{
    "version": "1.0",
    "truncation": null,
    "padding": null,
    "added_tokens": [
        {
            "id": 0,
            "special": true,
            "content": "</s>",
            "single_word": false,
            "lstrip": false,
            "rstrip": false,
            "normalized": false
        },
        {
            "id": 1,
            "special": true,
            "content": "<unk>",
            "single_word": false,
            "lstrip": false,
            "rstrip": false,
            "normalized": false
        },
        {
            "id": 65000,
            "special": true,
            "content": "<pad>",
            "single_word": false,
            "lstrip": false,
            "rstrip": false,
            "normalized": false
        }
    ],
    "normalizer": {
        "type": "Precompiled",
        "precompiled_charsmap": null
    },
    "pre_tokenizer": {
        "type": "Sequence",
        "pretokenizers": [
            {
                "type": "WhitespaceSplit"
            },
            {
                "type": "Metaspace",
                "replacement": "\u2581",
                "add_prefix_space": true
            }
        ]
    },
    "post_processor": {
        "type": "TemplateProcessing",
        "single": [
            {
                "Sequence": {
                    "id": "A",
                    "type_id": 0
                }
            },
            {
                "SpecialToken": {
                    "id": "</s>",
                    "type_id": 0
                }
            }
        ],
        "pair": [
            {
                "Sequence": {
                    "id": "A",
                    "type_id": 0
                }
            },
            {
                "SpecialToken": {
                    "id": "</s>",
                    "type_id": 0
                }
            },
            {
                "Sequence": {
                    "id": "B",
                    "type_id": 0
                }
            },
            {
                "SpecialToken": {
                    "id": "</s>",
                    "type_id": 0
                }
            }
        ],
        "special_tokens": {
            "</s>": {
                "id": "</s>",
                "ids": [
                    0
                ],
                "tokens": [
                    "</s>"
                ]
            }
        }
    },
    "decoder": {
        "type": "Metaspace",
        "replacement": "\u2581",
        "add_prefix_space": true
    },
    "model": {
        "type": "Unigram",
        "unk_id": 2,
        "vocab": [
            [
                "</s>",
                0.0
            ],
            [
                "<unk>",
                0.0
            ],
            [
                ",",
                -3.219982147216797
            ],
            [
                ".",
                -3.2885425090789795
            ],
            [
                "\u2581de",
                -2.8303639888763428
            ],
            [
                "\u2581the",
                -2.991680860519409
            ],
            [
                "\u2581la",
                -3.5090279579162598
            ],
            [
                "\u2581of",
                -3.4791665077209473
            ],
            [
                "\u2581a",
                -4.1037797927856445
            ],
            [
                "s",
                -4.264499664306641
            ],
            [
                "\u2581and",
                -3.7487235069274902
            ],
            [
                "\u2581y",
                -3.8843042850494385
            ],
            [
                "\u2581en",
                -3.9189085960388184
            ],
            [
                "\u2581to",
                -3.8299269676208496
            ],
            [
                "\u2581el",
                -3.9803805351257324
            ],
            [
                "\u2581que",
                -3.9963300228118896
            ],
            [
                "\u2581in",
                -4.133827209472656
            ],
            [
                "\u2581los",
                -4.3158416748046875
            ],
            [
                "\u2581las",
                -4.622281551361084
            ],
            [
                "\u2581del",
                -4.606731414794922
            ],
            [
                "'",
                -4.804521083831787
            ],
            [
                "?",
                -5.342905044555664
            ],
            [
                "\u2581(",
                -5.375385284423828
            ],
            [
                "\u2581for",
                -4.812706470489502
            ],
            [
                "\u2581para",
                -4.92578649520874
            ],
            [
                "\u2581",
                -4.998102188110352
            ],
            [
                "\u2581se",
                -4.9316253662109375
            ],
            [
                "\u2581that",
                -4.857141494750977
            ],
            [
                "\u2581un",
                -4.972893714904785
            ],
            [
                "\u2581con",
                -4.992010593414307
            ],
            [
                "-",
                -5.084637641906738
            ],
            [
                "\u2581is",
                -4.939358234405518
            ],
            [
                "\u2581-",
                -5.545777320861816
            ],
            [
                "\u2581I",
                -5.112522602081299
            ],
            [
                ":",
                -5.705151557922363
            ],
            [
                "\u2581on",
                -5.041044235229492
            ],
            [
                "\u2581por",
                -5.1290507316589355
            ],
            [
                "\u2581no",
                -5.257334232330322
            ],
            [
                "\u2581una",
                -5.182245254516602
            ],
            [
                ")",
                -5.691003799438477
            ],
            [
                "\u2581you",
                -5.2574286460876465
            ],
            [
                "\u2581with",
                -5.192314624786377
            ],
            [
                "\u2581The",
                -5.2231292724609375
            ],
            [
                "\u2581es",
                -5.397997856140137
            ],
            [
                "\u2581be",
                -5.351808071136475
            ],
            [
                "\u2581su",
                -5.442815780639648
            ],
            [
                "\u2581by",
                -5.453129291534424
            ],
            [
                "\u2581al",
                -5.570312976837158
            ],
            [
                "\u2581it",
                -5.523226261138916
            ],
            [
                "\u2581as",
                -5.570150852203369
            ],
            [
                "\u2581\u00bf",
                -5.430283069610596
            ],
            [
                ";",
                -6.181194305419922
            ],
            [
                "\u2581\"",
                -6.26918888092041
            ],
            [
                "\u2581are",
                -5.602673053741455
            ],
            [
                "\u2581El",
                -5.820808410644531
            ],
            [
                "!",
                -6.286035060882568
            ],
            [
                "t",
                -5.9422078132629395
            ],
            [
                "\u2581lo",
                -5.7455315589904785
            ],
            [
                "\u2581this",
                -5.784689426422119
            ],
            [
                "\u2581was",
                -5.801760196685791
            ],
            [
                "\u2581o",
                -5.881166934967041
            ],
            [
                "n",
                -6.0279412269592285
            ],
            [
                "\u2581or",
                -5.786905288696289
            ],
            [
                "\u2581from",
                -5.824411392211914
            ],
            [
                "\u2581not",
                -5.842423915863037
            ],
            [
                "\u2581have",
                -5.8650312423706055
            ],
            [
                "\u2581sobre",
                -5.946865081787109
            ],
            [
                "...",
                -6.454880714416504
            ],
            [
                "\u2581como",
                -5.931401252746582
            ],
            [
                "\u2581La",
                -5.991961479187012
            ],
            [
                "\u2581A",
                -6.620699882507324
            ],
            [
                "\u2581No",
                -6.2018656730651855
            ],
            [
                "\u2581m\u00e1s",
                -6.0058393478393555
            ],
            [
                "\u2581at",
                -5.963820457458496
            ],
            [
                "\u2581me",
                -6.703133583068848
            ],
            [
                "a",
                -6.675316333770752
            ],
            [
                "\u2581an",
                -6.099984169006348
            ],
            [
                "/",
                -6.7396111488342285
            ],
            [
                "\u2581En",
                -6.253480911254883
            ],
            [
                "\u2581will",
                -6.140087127685547
            ],
            [
                "\u2581which",
                -6.122926712036133
            ],
            [
                "\u2581all",
                -6.188032627105713
            ],
            [
                "\u2581has",
                -6.239590167999268
            ],
            [
                "\u2581your",
                -6.244679927825928
            ],
            [
                "\u2581sus",
                -6.358919143676758
            ],
            [
                "\u2581we",
                -6.2776408195495605
            ],
            [
                "\u2581its",
                -6.27433967590332
            ],
            [
                "\u2581ha",
                -6.3451247215271
            ],
            [
                "\u2581can",
                -6.3345046043396
            ],
            [
                "\u2581In",
                -6.395296573638916
            ],
            [
                "\u2581their",
                -6.314202308654785
            ],
            [
                "r",
                -6.616060256958008
            ],
            [
                "m",
                -6.611807823181152
            ],
            [
                "ing",
                -6.447174072265625
            ],
            [
                "\u2581It",
                -6.452106952667236
            ],
            [
                "\u2581he",
                -6.673933029174805
            ],
            [
                "d",
                -6.757066249847412
            ],
            [
                "o",
                -6.852785587310791
            ],
            [
                "es",
                -6.857809543609619
            ],
            [
                "\u2581You",
                -6.646720886230469
            ],
            [
                "re",
                -6.764936923980713
            ],
            [
                "\u2581been",
                -6.5598554611206055
            ],
            [
                "\u2581they",
                -6.655720233917236
            ],
            [
                ").",
                -7.535430431365967
            ],
            [
                "\u2581este",
                -6.703840732574463
            ],
            [
                "\u2581one",
                -6.646664142608643
            ],
            [
                "\u2581also",
                -6.612664699554443
            ],
            [
                "\u2581\u00a1",
                -6.512240886688232
            ],
            [
                "\u2581est\u00e1",
                -6.643415451049805
            ],
            [
                "\u2581were",
                -6.654885292053223
            ],
            [
                "e",
                -7.1841864585876465
            ],
            [
                "\u25811",
                -7.258858680725098
            ],
            [
                "\u2581entre",
                -6.757336139678955
            ],
            [
                "\u2581do",
                -6.7798261642456055
            ],
            [
                "\u2581other",
                -6.634754657745361
            ],
            [
                "\u2581had",
                -6.699134349822998
            ],
            [
                "\u2581more",
                -6.7056884765625
            ],
            [
                "),",
                -7.655791282653809
            ],
            [
                "ed",
                -6.845603942871094
            ],
            [
                "\u2581his",
                -6.768088340759277
            ],
            [
                "\u2581out",
                -6.794544219970703
            ],
            [
                "\u2581but",
                -6.772526264190674
            ],
            [
                "\u2581si",
                -6.783860206604004
            ],
            [
                "\u2581son",
                -6.932485103607178
            ],
            [
                "\u2581We",
                -6.832767963409424
            ],
            [
                "\u2581my",
                -6.881008625030518
            ],
            [
                "A",
                -7.435017108917236
            ],
            [
                "\"",
                -7.342019081115723
            ],
            [
                "\u2581United",
                -6.7726569175720215
            ],
            [
                "\u2581e",
                -7.068960666656494
            ],
            [
                "\u2581should",
                -6.79632568359375
            ],
            [
                "\u2581Los",
                -6.935474872589111
            ],
            [
                "\u2581tambi\u00e9n",
                -6.905204772949219
            ],
            [
                "\u2581about",
                -6.873785495758057
            ],
            [
                "\u2581would",
                -6.827600002288818
            ],
            [
                "\u2581esta",
                -6.863545894622803
            ],
            [
                "\u2581General",
                -7.424500942230225
            ],
            [
                "\u2581ser",
                -6.913637161254883
            ],
            [
                "\u2581who",
                -6.856438159942627
            ],
            [
                "\u2581there",
                -6.950359344482422
            ],
            [
                "\u2581our",
                -6.86244010925293
            ],
            [
                "\u2581up",
                -6.919032573699951
            ],
            [
                "\u2581Estados",
                -6.976284980773926
            ],
            [
                "\u2581This",
                -6.880430698394775
            ],
            [
                "\u2581\u201c",
                -7.368889331817627
            ],
            [
                "\u25812",
                -7.524455547332764
            ],
            [
                "\u2581'",
                -7.118786334991455
            ],
            [
                "\u2581so",
                -7.000916004180908
            ],
            [
                "\u25813",
                -7.564515113830566
            ],
            [
                "\u2581Comisi\u00f3n",
                -6.997671604156494
            ],
            [
                "\u2581what",
                -6.990029335021973
            ],
            [
                "y",
                -7.621870994567871
            ],
            [
                "se",
                -7.133898735046387
            ],
            [
                "\u2581States",
                -6.923391342163086
            ],
            [
                "\u2581todos",
                -7.031795501708984
            ],
            [
                "\u2581mi",
                -6.92007303237915
            ],
            [
                "do",
                -7.066326141357422
            ],
            [
                "\u2581puede",
                -7.015387535095215
            ],
            [
                "\u2581time",
                -6.979575157165527
            ],
            [
                "\u2581han",
                -7.067641258239746
            ],
            [
                "\u2581He",
                -7.269882678985596
            ],
            [
                "\u2581know",
                -7.097020149230957
            ],
            [
                "S",
                -7.581616401672363
            ],
            [
                "\u2581todo",
                -7.012786865234375
            ],
            [
                "\u2581Se",
                -7.1095805168151855
            ],
            [
                "\u2581le",
                -7.057633399963379
            ],
            [
                "\u2581pero",
                -7.032321929931641
            ],
            [
                "\u2581them",
                -7.121513843536377
            ],
            [
                "\u2581Naciones",
                -7.135801315307617
            ],
            [
                "\u2581Unidas",
                -7.144185543060303
            ],
            [
                "\u2581Committee",
                -7.015923976898193
            ],
            [
                "\u2581Y",
                -7.07985782623291
            ],
            [
                "\u2581like",
                -7.12532377243042
            ],
            [
                "\u2581Nations",
                -7.026965141296387
            ],
            [
                "\u2581if",
                -7.085601329803467
            ],
            [
                "\u2581S",
                -7.686118125915527
            ],
            [
                "\u2581into",
                -7.065433025360107
            ],
            [
                "\u2581Es",
                -7.0779547691345215
            ],
            [
                "\u2581te",
                -7.034835338592529
            ],
            [
                "\u2581such",
                -7.0669426918029785
            ],
            [
                "\u2581people",
                -7.112922668457031
            ],
            [
                "\u2581desarrollo",
                -7.210433483123779
            ],
            [
                "\u2581informaci\u00f3n",
                -7.213778018951416
            ],
            [
                "\u2581any",
                -7.115077018737793
            ],
            [
                "\u2581What",
                -7.252079010009766
            ],
            [
                "\u2581pa\u00edses",
                -7.21976900100708
            ],
            [
                "\u2581Consejo",
                -7.213091850280762
            ],
            [
                "\u2581parte",
                -7.210659027099609
            ],
            [
                "\u2581And",
                -7.223997116088867
            ],
            [
                "\u2581right",
                -7.189398765563965
            ],
            [
                "C",
                -7.9034929275512695
            ],
            [
                "\u2581Council",
                -7.098082065582275
            ],
            [
                "\u2581as\u00ed",
                -7.189996719360352
            ],
            [
                "\u2581Por",
                -7.209015369415283
            ],
            [
                "\u2581sin",
                -7.289156436920166
            ],
            [
                "\u2019",
                -7.17550802230835
            ],
            [
                "\u2581new",
                -7.131608009338379
            ],
            [
                "\u2581Commission",
                -7.09794807434082
            ],
            [
                "\u2581work",
                -7.137571811676025
            ],
            [
                "da",
                -7.374488830566406
            ],
            [
                "\u2581contra",
                -7.2754225730896
            ],
            [
                "\u25814",
                -7.838987827301025
            ],
            [
                "\u2581C",
                -7.876339912414551
            ],
            [
                "te",
                -7.446984767913818
            ],
            [
                "\u2581information",
                -7.162207126617432
            ],
            [
                "\u2581a\u00f1os",
                -7.280592918395996
            ],
            [
                "\u2581these",
                -7.194365978240967
            ],
            [
                "\u25815",
                -7.860865592956543
            ],
            [
                "\u2581when",
                -7.225108623504639
            ],
            [
                "\u2581just",
                -7.301507949829102
            ],
            [
                "ll",
                -7.399011135101318
            ],
            [
                "\u2581only",
                -7.2180609703063965
            ],
            [
                "\u2581bien",
                -7.167474269866943
            ],
            [
                "\u2581tu",
                -7.1971845626831055
            ],
            [
                "\u2581under",
                -7.19502067565918
            ],
            [
                "mos",
                -7.280039310455322
            ],
            [
                "\u2581Si",
                -7.263852119445801
            ],
            [
                "\u258110",
                -7.86134147644043
            ],
            [
                "\u2581may",
                -7.202280044555664
            ],
            [
                "\u2581Las",
                -7.401389122009277
            ],
            [
                "\u2581him",
                -7.33323335647583
            ],
            [
                "\u2581cuando",
                -7.284544467926025
            ],
            [
                "\u2581international",
                -7.206486701965332
            ],
            [
                "\u2581fue",
                -7.316090106964111
            ],
            [
                "\u2581De",
                -7.438752174377441
            ],
            [
                "\u2581her",
                -7.341653347015381
            ],
            [
                "\u2581derechos",
                -7.365415573120117
            ],
            [
                "\u2581here",
                -7.369169235229492
            ],
            [
                "\u2581us",
                -7.2900004386901855
            ],
            [
                "\u2581shall",
                -7.217638969421387
            ],
            [
                "c",
                -7.834598064422607
            ],
            [
                "\u2581qu\u00e9",
                -7.198635101318359
            ],
            [
                "\u2581dos",
                -7.334747791290283
            ],
            [
                "\u2581social",
                -7.757770538330078
            ],
            [
                "\u2581some",
                -7.301233291625977
            ],
            [
                "\u2581than",
                -7.276162147521973
            ],
            [
                "\u2581tiene",
                -7.312476634979248
            ],
            [
                "er",
                -7.6053643226623535
            ],
            [
                "\u2581particular",
                -7.96213436126709
            ],
            [
                "\u2581muy",
                -7.307310581207275
            ],
            [
                "\u2581countries",
                -7.2486186027526855
            ],
            [
                "\u2581those",
                -7.2769856452941895
            ],
            [
                "\u2581re",
                -8.019926071166992
            ],
            [
                "ve",
                -7.625920295715332
            ],
            [
                "\u2581don",
                -7.4832444190979
            ],
            [
                "\u2581art\u00edculo",
                -7.382050514221191
            ],
            [
                "\u2581s",
                -7.472757816314697
            ],
            [
                "\u2581rights",
                -7.300534248352051
            ],
            [
                "\u2581E",
                -8.094841957092285
            ],
            [
                "\u2581made",
                -7.309137344360352
            ],
            [
                "ly",
                -7.4029083251953125
            ],
            [
                "\u2581personas",
                -7.433487892150879
            ],
            [
                "\u2581development",
                -7.284087181091309
            ],
            [
                "\u2581desde",
                -7.420887470245361
            ],
            [
                "\u2581between",
                -7.310415267944336
            ],
            [
                "\u2581well",
                -7.346297740936279
            ],
            [
                "\u2581Comit\u00e9",
                -7.443065166473389
            ],
            [
                "\u2581European",
                -7.282129764556885
            ],
            [
                "\u2581hacer",
                -7.362154960632324
            ],
            [
                "\u2581vez",
                -7.364392280578613
            ],
            [
                "la",
                -7.5701117515563965
            ],
            [
                "b",
                -7.734618186950684
            ],
            [
                "\u2581otros",
                -7.451155185699463
            ],
            [
                "\u2581two",
                -7.361400127410889
            ],
            [
                "\u00e1",
                -7.783209800720215
            ],
            [
                "\u2581need",
                -7.376598358154297
            ],
            [
                "\u2581B",
                -8.065228462219238
            ],
            [
                "\u2581ya",
                -7.492037296295166
            ],
            [
                "\u2581use",
                -7.375222682952881
            ],
            [
                "\u2581first",
                -7.391468048095703
            ],
            [
                "i",
                -7.933884620666504
            ],
            [
                "\u2581over",
                -7.420534610748291
            ],
            [
                "\u2581get",
                -7.497107028961182
            ],
            [
                "\u2581take",
                -7.414392948150635
            ],
            [
                "\u2581trabajo",
                -7.463588714599609
            ],
            [
                "\u2581must",
                -7.398826599121094
            ],
            [
                "ndo",
                -7.527912139892578
            ],
            [
                "\u2581report",
                -7.371253490447998
            ],
            [
                "Qu\u00e9",
                -7.30121374130249
            ],
            [
                "lo",
                -7.584421634674072
            ],
            [
                "\u2581medidas",
                -7.527651309967041
            ],
            [
                "\u2581through",
                -7.422702789306641
            ],
            [
                "\u2581now",
                -7.486466407775879
            ],
            [
                "\u2581tiempo",
                -7.461577892303467
            ],
            [
                "in",
                -7.848419666290283
            ],
            [
                "\u25816",
                -8.057276725769043
            ],
            [
                "\u2581could",
                -7.471012115478516
            ],
            [
                "mente",
                -7.520061492919922
            ],
            [
                "on",
                -7.992688179016113
            ],
            [
                "\u2581human",
                -7.421726226806641
            ],
            [
                "\u2581go",
                -7.602126121520996
            ],
            [
                "\u2581where",
                -7.460125923156738
            ],
            [
                "\u2581years",
                -7.467469215393066
            ],
            [
                "\u2581aqu\u00ed",
                -7.396164894104004
            ],
            [
                "\u2581general",
                -8.069310188293457
            ],
            [
                "\u2581per\u00edodo",
                -7.553983211517334
            ],
            [
                "\u2581miembros",
                -7.576251983642578
            ],
            [
                "\u2581lugar",
                -7.5554704666137695
            ],
            [
                "\u2581make",
                -7.49330472946167
            ],
            [
                "de",
                -7.887107849121094
            ],
            [
                "\u2581P",
                -8.172630310058594
            ],
            [
                "\u2581hay",
                -7.517629623413086
            ],
            [
                "\u2581hasta",
                -7.574544429779053
            ],
            [
                "\u2581State",
                -7.4698166847229
            ],
            [
                "\u2581cada",
                -7.589645862579346
            ],
            [
                "\u2581informe",
                -7.591238498687744
            ],
            [
                "\u2581per",
                -7.748198509216309
            ],
            [
                "\u2581including",
                -7.487213134765625
            ],
            [
                "\u2581Estado",
                -7.61137580871582
            ],
            [
                "\u2581est\u00e1n",
                -7.580253601074219
            ],
            [
                "\u2581very",
                -7.541102409362793
            ],
            [
                "\u2581support",
                -7.48232889175415
            ],
            [
                "\u2581\u2013",
                -8.25822925567627
            ],
            [
                "\u2581servicios",
                -7.64130163192749
            ],
            [
                "\u2581durante",
                -7.637264728546143
            ],
            [
                "al",
                -7.993164539337158
            ],
            [
                "\u2581national",
                -7.498355388641357
            ],
            [
                "\u2581programa",
                -7.635011672973633
            ],
            [
                "\u258118",
                -8.283432006835938
            ],
            [
                "\u2581todas",
                -7.636895656585693
            ],
            [
                "\u00f3",
                -8.03336238861084
            ],
            [
                "\u258115",
                -8.240078926086426
            ],
            [
                "l",
                -7.921143054962158
            ],
            [
                "\u2581said",
                -7.576960563659668
            ],
            [
                "en",
                -7.932092666625977
            ],
            [
                "\u2581want",
                -7.6478753089904785
            ],
            [
                "ba",
                -7.755927562713623
            ],
            [
                "\u2581way",
                -7.588207721710205
            ],
            [
                "\u2581[",
                -8.167691230773926
            ],
            [
                "\u25817",
                -8.246750831604004
            ],
            [
                "\u2581vida",
                -7.608746528625488
            ],
            [
                "\u2581against",
                -7.547698497772217
            ],
            [
                "\u2581But",
                -7.66384744644165
            ],
            [
                "\u2581see",
                -7.629626750946045
            ],
            [
                "\u2581most",
                -7.566110134124756
            ],
            [
                "\u2581That",
                -7.698598384857178
            ],
            [
                "\u2581forma",
                -7.649179935455322
            ],
            [
                "\u2581internacional",
                -7.678523540496826
            ],
            [
                "\u2581eso",
                -7.504454612731934
            ],
            [
                "\u2581sistema",
                -7.6738786697387695
            ],
            [
                "\u2581women",
                -7.569252967834473
            ],
            [
                "\u2581mejor",
                -7.613996982574463
            ],
            [
                "\u2581era",
                -7.6401143074035645
            ],
            [
                "\u2581system",
                -7.55376672744751
            ],
            [
                "\u2581Article",
                -7.508359909057617
            ],
            [
                "\u2581actividades",
                -7.6893463134765625
            ],
            [
                "no",
                -7.899375915527344
            ],
            [
                "\u2581If",
                -7.633249282836914
            ],
            [
                "\u2581children",
                -7.584602355957031
            ],
            [
                "\u258120",
                -8.280665397644043
            ],
            [
                "\u2581Lo",
                -7.599920749664307
            ],
            [
                "\u2581Con",
                -7.836732864379883
            ],
            [
                "\u2581\u2014",
                -8.07180404663086
            ],
            [
                "\u2581nos",
                -7.75195837020874
            ],
            [
                "\u2581debe",
                -7.679437637329102
            ],
            [
                "\u2581Al",
                -7.9260172843933105
            ],
            [
                "me",
                -7.8346099853515625
            ],
            [
                "\u2581esto",
                -7.576650619506836
            ],
            [
                "\u2581derecho",
                -7.687682628631592
            ],
            [
                "g",
                -8.31242847442627
            ],
            [
                "\u2581aplicaci\u00f3n",
                -7.713789463043213
            ],
            [
                "to",
                -8.420795440673828
            ],
            [
                "\u25818",
                -8.290705680847168
            ],
            [
                "\u2581cuenta",
                -7.686007022857666
            ],
            [
                "\u2581she",
                -7.708803176879883
            ],
            [
                "\u258130",
                -8.322850227355957
            ],
            [
                "\u2581ese",
                -7.663658142089844
            ],
            [
                "\u258112",
                -8.321593284606934
            ],
            [
                "\u2581world",
                -7.619658946990967
            ],
            [
                "\u2581Mr",
                -7.63562536239624
            ],
            [
                "\u2581how",
                -7.681691646575928
            ],
            [
                "\".",
                -8.075156211853027
            ],
            [
                "\u2581mundo",
                -7.706299304962158
            ],
            [
                "]",
                -8.187127113342285
            ],
            [
                "\u2581So",
                -7.889512062072754
            ],
            [
                "\u2581pueden",
                -7.740187644958496
            ],
            [
                "\u2581fin",
                -7.749231338500977
            ],
            [
                "\u2581Me",
                -7.772950649261475
            ],
            [
                "\u2581Member",
                -7.584251403808594
            ],
            [
                "\u2581otras",
                -7.762600898742676
            ],
            [
                "le",
                -8.01170825958252
            ],
            [
                "\u2581being",
                -7.668066501617432
            ],
            [
                "\u2581sido",
                -7.738992214202881
            ],
            [
                "\u2581sea",
                -7.9408721923828125
            ],
            [
                "\u2581country",
                -7.656773567199707
            ],
            [
                "\u2581Pero",
                -7.624833106994629
            ],
            [
                "\u2581God",
                -7.695252418518066
            ],
            [
                "\u2581good",
                -7.718581199645996
            ],
            [
                "\u2581seguridad",
                -7.770814418792725
            ],
            [
                "\u2581For",
                -7.7195611000061035
            ],
            [
                "\u2581order",
                -7.645904064178467
            ],
            [
                "\u2581humanos",
                -7.795834064483643
            ],
            [
                "\u2581Dios",
                -7.742414474487305
            ],
            [
                "ci\u00f3n",
                -7.865712642669678
            ],
            [
                "\u2581S\u00ed",
                -7.584609031677246
            ],
            [
                ".\"",
                -8.109803199768066
            ],
            [
                "\u2581ni\u00f1os",
                -7.790462493896484
            ],
            [
                "\u2581many",
                -7.687901496887207
            ],
            [
                "\u2581law",
                -7.6576313972473145
            ],
            [
                "L",
                -8.410481452941895
            ],
            [
                "\u2581tanto",
                -7.766571521759033
            ],
            [
                "\u2581hab\u00eda",
                -7.762271404266357
            ],
            [
                "\u2581did",
                -7.780363082885742
            ],
            [
                "\u2581...",
                -8.387046813964844
            ],
            [
                "\u2581pa\u00eds",
                -7.797945022583008
            ],
            [
                "\u2581number",
                -7.686211109161377
            ],
            [
                "\u2581Para",
                -7.843489170074463
            ],
            [
                "th",
                -7.9077372550964355
            ],
            [
                "\u2581mismo",
                -7.766122341156006
            ],
            [
                "\u2581There",
                -7.782121181488037
            ],
            [
                "\u2581services",
                -7.704278945922852
            ],
            [
                "\u2581control",
                -8.392678260803223
            ],
            [
                "2",
                -8.229985237121582
            ],
            [
                "\u2581think",
                -7.8343377113342285
            ],
            [
                "\u2581because",
                -7.73977518081665
            ],
            [
                "\u2581uno",
                -7.806904315948486
            ],
            [
                "\u2581s\u00f3lo",
                -7.773292541503906
            ],
            [
                "\u2581before",
                -7.754379749298096
            ],
            [
                "\u2581Oh",
                -8.195107460021973
            ],
            [
                "\u2581gran",
                -7.808429718017578
            ],
            [
                "\u2581They",
                -7.810160160064697
            ],
            [
                "\u2581after",
                -7.759021282196045
            ],
            [
                "\u2581same",
                -7.747759819030762
            ],
            [
                "an",
                -8.277058601379395
            ],
            [
                "\u2581proyecto",
                -7.8359293937683105
            ],
            [
                "\u2581O",
                -8.261068344116211
            ],
            [
                "\u2581\u00e9l",
                -7.753635883331299
            ],
            [
                "\u2581life",
                -7.785365581512451
            ],
            [
                "\u2581hecho",
                -7.783387184143066
            ],
            [
                "\u2581personal",
                -8.172804832458496
            ],
            [
                "\u2581measures",
                -7.717495918273926
            ],
            [
                "\u2581caso",
                -7.82640266418457
            ],
            [
                "\u2581To",
                -7.87521505355835
            ],
            [
                "I",
                -8.101557731628418
            ],
            [
                "\u2581d\u00eda",
                -7.814890384674072
            ],
            [
                "\u2581resoluci\u00f3n",
                -7.871147632598877
            ],
            [
                "\u2581a\u00f1o",
                -7.869266986846924
            ],
            [
                "\u2581antes",
                -7.843977451324463
            ],
            [
                "\u2581sesiones",
                -7.882861614227295
            ],
            [
                "\u2581part",
                -7.756477355957031
            ],
            [
                "\u2581sector",
                -8.458516120910645
            ],
            [
                "\u25819",
                -8.470486640930176
            ],
            [
                "\u2581within",
                -7.762636184692383
            ],
            [
                "\u2581respecto",
                -7.893021583557129
            ],
            [
                "\u2581ahora",
                -7.79125452041626
            ],
            [
                "\u2581then",
                -7.9042439460754395
            ],
            [
                "\u2581D",
                -8.401028633117676
            ],
            [
                "\u2581total",
                -8.517618179321289
            ],
            [
                "\u2581yo",
                -7.795404434204102
            ],
            [
                "\u2581resolution",
                -7.751923561096191
            ],
            [
                "\u2581back",
                -7.902928352355957
            ],
            [
                "\u2581activities",
                -7.775810718536377
            ],
            [
                "\u2581used",
                -7.812123775482178
            ],
            [
                "\u2581year",
                -7.801853179931641
            ],
            [
                "\u2581mayor",
                -7.9590582847595215
            ],
            [
                "\u2581even",
                -7.861030101776123
            ],
            [
                "\u2581mujeres",
                -7.943472385406494
            ],
            [
                "\u2581public",
                -7.812256336212158
            ],
            [
                "\u2581place",
                -7.835657596588135
            ],
            [
                "\u2581As",
                -7.896552085876465
            ],
            [
                "\u2581esa",
                -7.8755202293396
            ],
            [
                "\u2581porque",
                -7.8912577629089355
            ],
            [
                "\u2581area",
                -7.829226493835449
            ],
            [
                "\u2581man",
                -8.055627822875977
            ],
            [
                "\u2581come",
                -7.965768814086914
            ],
            [
                "\u2581International",
                -7.890233516693115
            ],
            [
                "\u2581algo",
                -7.804344654083252
            ],
            [
                "\u2581At",
                -7.999228000640869
            ],
            [
                "\u258111",
                -8.538196563720703
            ],
            [
                "\u2581acuerdo",
                -7.899121284484863
            ],
            [
                "\u2581best",
                -7.8720855712890625
            ],
            [
                "\u2581menos",
                -7.933202266693115
            ],
            [
                "\u2581apoyo",
                -7.982189178466797
            ],
            [
                "\u2581Sr",
                -7.932499408721924
            ],
            [
                "\u2581nivel",
                -7.987762451171875
            ],
            [
                "\u2581implementation",
                -7.854830265045166
            ],
            [
                "\u2581down",
                -7.938270568847656
            ],
            [
                "or",
                -8.123842239379883
            ],
            [
                "\u2581during",
                -7.875439643859863
            ],
            [
                "\u2581recursos",
                -8.000797271728516
            ],
            [
                "\u2581Convention",
                -7.85303258895874
            ],
            [
                "\u2581Su",
                -8.059843063354492
            ],
            [
                "\u2581presente",
                -7.967138290405273
            ],
            [
                "\u2581got",
                -8.058886528015137
            ],
            [
                "\u2581hace",
                -7.910646915435791
            ],
            [
                "3",
                -8.485115051269531
            ],
            [
                "\u2581Un",
                -8.066473960876465
            ],
            [
                "\u00e9",
                -8.15384292602539
            ],
            [
                "\u2581ni",
                -7.971425533294678
            ],
            [
                "\u2581regional",
                -8.259465217590332
            ],
            [
                "E",
                -8.46198558807373
            ],
            [
                "\u258114",
                -8.550065040588379
            ],
            [
                "\u2581Gobierno",
                -8.009383201599121
            ],
            [
                "\u258116",
                -8.599831581115723
            ],
            [
                "B",
                -8.69468879699707
            ],
            [
                "\u201d",
                -8.268686294555664
            ],
            [
                "\u2581programas",
                -8.034310340881348
            ],
            [
                "\u2581Government",
                -7.871528148651123
            ],
            [
                "\u2581plan",
                -8.588356018066406
            ],
            [
                "\u2581All",
                -8.01220417022705
            ],
            [
                "\u2581F",
                -8.67041015625
            ],
            [
                "\u2581relaci\u00f3n",
                -8.022798538208008
            ],
            [
                "\u2581day",
                -7.941280364990234
            ],
            [
                "dos",
                -8.018366813659668
            ],
            [
                "\u2581without",
                -7.924680233001709
            ],
            [
                "\u2581despu\u00e9s",
                -8.007566452026367
            ],
            [
                "\u2581datos",
                -8.032761573791504
            ],
            [
                "\u2581nuevo",
                -7.991795063018799
            ],
            [
                "\u2581L",
                -8.497063636779785
            ],
            [
                "\u2581T",
                -8.445328712463379
            ],
            [
                "\u2581economic",
                -7.903802394866943
            ],
            [
                "\u2581following",
                -7.907203197479248
            ],
            [
                "\u2581going",
                -8.066502571105957
            ],
            [
                "\u2581important",
                -7.927201271057129
            ],
            [
                "ra",
                -8.179671287536621
            ],
            [
                "\u2581session",
                -7.8970794677734375
            ],
            [
                "\u2581manera",
                -8.011222839355469
            ],
            [
                "\u2581situaci\u00f3n",
                -8.043014526367188
            ],
            [
                "\u2581estos",
                -8.050841331481934
            ],
            [
                "\u2581each",
                -7.947714805603027
            ],
            [
                "\u2581otra",
                -7.982595443725586
            ],
            [
                "\u2581local",
                -8.331398963928223
            ],
            [
                "\u2581Re",
                -8.665945053100586
            ],
            [
                "\u2581Assembly",
                -7.925899505615234
            ],
            [
                "das",
                -8.064809799194336
            ],
            [
                "\u2581tres",
                -8.041383743286133
            ],
            [
                "\u2581otro",
                -8.00363540649414
            ],
            [
                "\u2581three",
                -7.974982738494873
            ],
            [
                "\u2581ellos",
                -8.048707962036133
            ],
            [
                "\u2581nacional",
                -8.077339172363281
            ],
            [
                "\u2581case",
                -7.967450141906738
            ],
            [
                "\u2581tipo",
                -8.020145416259766
            ],
            [
                "\u258117",
                -8.679838180541992
            ],
            [
                "\u2581Asamblea",
                -8.076385498046875
            ],
            [
                "\u2581help",
                -7.999747276306152
            ],
            [
                "\u258119",
                -8.715697288513184
            ],
            [
                "\u2581proceso",
                -8.073426246643066
            ],
            [
                "\u2581both",
                -7.97310733795166
            ],
            [
                "\u2581tener",
                -8.020121574401855
            ],
            [
                "\u2581Este",
                -8.082345962524414
            ],
            [
                "\u2581New",
                -8.120339393615723
            ],
            [
                "\u2581process",
                -7.947177886962891
            ],
            [
                "\u2581donde",
                -8.046093940734863
            ],
            [
                "\u2581pol\u00edtica",
                -8.069844245910645
            ],
            [
                "\u00ad",
                -8.6632661819458
            ],
            [
                "\u2581provide",
                -7.938654899597168
            ],
            [
                "\u2581tienen",
                -8.067291259765625
            ],
            [
                "ta",
                -8.382304191589355
            ],
            [
                "co",
                -8.52149486541748
            ],
            [
                "\u2581casa",
                -7.975536346435547
            ],
            [
                "\u2581non",
                -7.961400508880615
            ],
            [
                "\u2581usted",
                -8.013201713562012
            ],
            [
                "\u2581She",
                -8.180845260620117
            ],
            [
                "\u258113",
                -8.673158645629883
            ],
            [
                "\u2581meeting",
                -7.9652838706970215
            ],
            [
                "\u2581ver",
                -8.047844886779785
            ],
            [
                "\u2581set",
                -7.972986698150635
            ],
            [
                "\u2581importante",
                -8.069514274597168
            ],
            [
                "\u2581Presidente",
                -8.09514045715332
            ],
            [
                "\u2581level",
                -7.971982955932617
            ],
            [
                "\u2581say",
                -8.083969116210938
            ],
            [
                "\u2581base",
                -8.293685913085938
            ],
            [
                "\u2581n\u00famero",
                -8.10604190826416
            ],
            [
                "\u2581b",
                -8.31868839263916
            ],
            [
                "\u2581own",
                -8.029362678527832
            ],
            [
                "\u00eda",
                -8.209796905517578
            ],
            [
                "\u2581security",
                -7.9958600997924805
            ],
            [
                "\u2581does",
                -8.03794002532959
            ],
            [
                "\u2581G",
                -8.732697486877441
            ],
            [
                "\u2581Uni\u00f3n",
                -8.112890243530273
            ],
            [
                "\u2581cualquier",
                -8.113982200622559
            ],
            [
                "\u2581nuestro",
                -8.090505599975586
            ],
            [
                "\u2581Social",
                -8.558952331542969
            ],
            [
                "com",
                -8.873944282531738
            ],
            [
                "\u258125",
                -8.74263858795166
            ],
            [
                "\u2581tan",
                -8.056565284729004
            ],
            [
                "ar",
                -8.492578506469727
            ],
            [
                "\u2581organizaciones",
                -8.143584251403809
            ],
            [
                "No",
                -8.052677154541016
            ],
            [
                "\u258124",
                -8.686647415161133
            ],
            [
                "\u2581health",
                -8.024307250976562
            ],
            [
                "\u2581provided",
                -8.02181625366211
            ],
            [
                "\u2581productos",
                -8.164316177368164
            ],
            [
                "\u2581mucho",
                -8.042200088500977
            ],
            [
                "\u2581Esta",
                -8.126445770263672
            ],
            [
                "Y",
                -8.269105911254883
            ],
            [
                "\u2581Sin",
                -8.204782485961914
            ],
            [
                "\u2581M",
                -8.608072280883789
            ],
            [
                "\u2581programme",
                -8.00566577911377
            ],
            [
                "General",
                -8.026225090026855
            ],
            [
                "\u2581much",
                -8.103859901428223
            ],
            [
                "\u2581p",
                -8.50142765045166
            ],
            [
                "\u2581different",
                -8.052139282226562
            ],
            [
                "k",
                -8.74390697479248
            ],
            [
                "\u2581How",
                -8.18235969543457
            ],
            [
                "\u2581policy",
                -8.041704177856445
            ],
            [
                "\u2581embargo",
                -8.220609664916992
            ],
            [
                "\u2581real",
                -8.530956268310547
            ],
            [
                "\u2581cooperaci\u00f3n",
                -8.17087459564209
            ],
            [
                "\u2581medio",
                -8.15731430053711
            ],
            [
                "\u2581protecci\u00f3n",
                -8.18682861328125
            ],
            [
                "\u2581favor",
                -8.14103889465332
            ],
            [
                "\u2581high",
                -8.067962646484375
            ],
            [
                "\u2581Well",
                -8.27573299407959
            ],
            [
                "\u2581legal",
                -8.243450164794922
            ],
            [
                "\u2581Te",
                -8.170769691467285
            ],
            [
                "\u2581Union",
                -8.040741920471191
            ],
            [
                "\u2581financial",
                -8.044062614440918
            ],
            [
                "\u2581ensure",
                -8.03963851928711
            ],
            [
                "ron",
                -8.259521484375
            ],
            [
                "\u2581Grupo",
                -8.193474769592285
            ],
            [
                "\u2581cooperation",
                -8.053359031677246
            ],
            [
                "\u2581long",
                -8.126544952392578
            ],
            [
                "\u2581Secretary",
                -8.06396484375
            ],
            [
                "el",
                -8.566547393798828
            ],
            [
                "D",
                -8.720685958862305
            ],
            [
                "\u2581still",
                -8.140161514282227
            ],
            [
                "\u2581period",
                -8.046677589416504
            ],
            [
                "na",
                -8.58060073852539
            ],
            [
                "\u2581decir",
                -8.091917991638184
            ],
            [
                "\u2581Le",
                -8.425686836242676
            ],
            [
                "\u2581taken",
                -8.078978538513184
            ],
            [
                "\u2581toda",
                -8.153319358825684
            ],
            [
                "\u2581Secretario",
                -8.192583084106445
            ],
            [
                "\u2581internacionales",
                -8.203532218933105
            ],
            [
                "\u2581condiciones",
                -8.199773788452148
            ],
            [
                "\u2581President",
                -8.074586868286133
            ],
            [
                "\u2581available",
                -8.092337608337402
            ],
            [
                "\u2581d\u00edas",
                -8.191280364990234
            ],
            [
                "\u2581solo",
                -8.174306869506836
            ],
            [
                "\u2581members",
                -8.090156555175781
            ],
            [
                "\u2581paz",
                -8.190759658813477
            ],
            [
                "\u2581final",
                -8.705944061279297
            ],
            [
                "\u2581data",
                -8.128946304321289
            ],
            [
                "\u2581find",
                -8.14126968383789
            ],
            [
                "\u2581millones",
                -8.213604927062988
            ],
            [
                "\u2581ejemplo",
                -8.19475269317627
            ],
            [
                "\u2581nuestra",
                -8.167855262756348
            ],
            [
                "\u2581Reglamento",
                -8.187873840332031
            ],
            [
                "\u2581On",
                -8.144254684448242
            ],
            [
                "\u2581last",
                -8.156085014343262
            ],
            [
                "\u2581possible",
                -8.100998878479004
            ],
            [
                "\u2581nacionales",
                -8.234256744384766
            ],
            [
                "\u2581end",
                -8.11827278137207
            ],
            [
                "\u2581Internacional",
                -8.232037544250488
            ],
            [
                "\u2581posible",
                -8.201374053955078
            ],
            [
                "\u2581Convenci\u00f3n",
                -8.237436294555664
            ],
            [
                "\u2581civil",
                -8.835657119750977
            ],
            [
                "\u2581mediante",
                -8.230362892150879
            ],
            [
                "\u2581Mi",
                -8.315670013427734
            ],
            [
                "\u2581momento",
                -8.160979270935059
            ],
            [
                "\u2581Europea",
                -8.2109956741333
            ],
            [
                "\u2581areas",
                -8.127172470092773
            ],
            [
                "\u2581give",
                -8.166380882263184
            ],
            [
                "\u2581c",
                -8.455249786376953
            ],
            [
                "\u2581Yeah",
                -8.31829833984375
            ],
            [
                "\u2581free",
                -8.157529830932617
            ],
            [
                "\u2581resources",
                -8.110590934753418
            ],
            [
                "\u2581nombre",
                -8.202180862426758
            ],
            [
                "\u2581estaba",
                -8.131303787231445
            ],
            [
                "is",
                -8.70605182647705
            ],
            [
                "\u2581further",
                -8.117396354675293
            ],
            [
                "\u2581Rep\u00fablica",
                -8.207925796508789
            ],
            [
                "\u258131",
                -8.842012405395508
            ],
            [
                "\u2581Una",
                -8.196015357971191
            ],
            [
                "as",
                -8.703047752380371
            ],
            [
                "\u2581estas",
                -8.277039527893066
            ],
            [
                "\u2581Republic",
                -8.067617416381836
            ],
            [
                "\u2581ella",
                -8.158411979675293
            ],
            [
                "\u2581asistencia",
                -8.255483627319336
            ],
            [
                "\u2581Do",
                -8.404247283935547
            ],
            [
                "\u2581since",
                -8.14537525177002
            ],
            [
                "\u2581deben",
                -8.26132869720459
            ],
            [
                "\u2581mujer",
                -8.212189674377441
            ],
            [
                "\u2581Community",
                -8.128376007080078
            ],
            [
                "\u2581am",
                -8.336251258850098
            ],
            [
                "\",",
                -8.734199523925781
            ],
            [
                "\u2581calidad",
                -8.275364875793457
            ],
            [
                "\u2581political",
                -8.143179893493652
            ],
            [
                "\u2581les",
                -8.253066062927246
            ],
            [
                "\u2581siempre",
                -8.202081680297852
            ],
            [
                "\u2581estar",
                -8.190549850463867
            ],
            [
                "\u2581cosas",
                -8.192482948303223
            ],
            [
                "\u2581great",
                -8.202720642089844
            ],
            [
                "\u2581salud",
                -8.281682014465332
            ],
            [
                "\u2581_",
                -8.892254829406738
            ],
            [
                "\u2581access",
                -8.154812812805176
            ],
            [
                "\u2581U",
                -8.724678039550781
            ],
            [
                "\u2581too",
                -8.303118705749512
            ],
            [
                "\u2581\u00ab",
                -8.29671859741211
            ],
            [
                "\u2581while",
                -8.200196266174316
            ],
            [
                "\u2581estado",
                -8.244328498840332
            ],
            [
                "\u2581San",
                -8.836074829101562
            ],
            [
                "\u2581decision",
                -8.13712215423584
            ],
            [
                "\u2581uso",
                -8.283735275268555
            ],
            [
                "\u2581online",
                -8.503338813781738
            ],
            [
                "\u258121",
                -8.824496269226074
            ],
            [
                "\u2581II",
                -8.862653732299805
            ],
            [
                "f",
                -8.77450180053711
            ],
            [
                "\u2581algunos",
                -8.28971004486084
            ],
            [
                "\u2581view",
                -8.172165870666504
            ],
            [
                "\u2581Adem\u00e1s",
                -8.300863265991211
            ],
            [
                "h",
                -8.75058650970459
            ],
            [
                "ma",
                -8.679399490356445
            ],
            [
                "z",
                -8.8025484085083
            ],
            [
                "\u00e1n",
                -8.319158554077148
            ],
            [
                "\u2581DE",
                -8.36049747467041
            ],
            [
                "\u2581nada",
                -8.131272315979004
            ],
            [
                "\u2581action",
                -8.166397094726562
            ],
            [
                "\u2581protection",
                -8.174569129943848
            ],
            [
                "\u2581party",
                -8.21288013458252
            ],
            [
                "\u2581Yo",
                -8.21440601348877
            ],
            [
                "\u2581Rights",
                -8.221658706665039
            ],
            [
                "\u2581December",
                -8.182706832885742
            ],
            [
                "\u2581capacidad",
                -8.320053100585938
            ],
            [
                "(",
                -8.826231002807617
            ],
            [
                "\u2581N",
                -8.786227226257324
            ],
            [
                "\u2581cuestiones",
                -8.31678295135498
            ],
            [
                "\u2581working",
                -8.220233917236328
            ],
            [
                "\u2581education",
                -8.188883781433105
            ],
            [
                "\u2581p\u00e1rrafo",
                -8.300573348999023
            ],
            [
                "\u2581necessary",
                -8.181275367736816
            ],
            [
                "\u2581ex",
                -8.709138870239258
            ],
            [
                "\u2581Regulation",
                -8.132445335388184
            ],
            [
                "\u2581nosotros",
                -8.260086059570312
            ],
            [
                "\u2581marco",
                -8.308732032775879
            ],
            [
                "\u258122",
                -8.901213645935059
            ],
            [
                "\u2581organizations",
                -8.19570255279541
            ],
            [
                "u",
                -8.758447647094727
            ],
            [
                "P",
                -8.804967880249023
            ],
            [
                "\u2581d",
                -8.70257568359375
            ],
            [
                "\u2581R",
                -8.76192855834961
            ],
            [
                "\u2581situation",
                -8.184887886047363
            ],
            [
                "p",
                -8.769351959228516
            ],
            [
                "ciones",
                -8.433852195739746
            ],
            [
                "\u2581special",
                -8.216286659240723
            ],
            [
                "\u2581My",
                -8.397214889526367
            ],
            [
                "\u2581web",
                -8.756302833557129
            ],
            [
                "\u2581&",
                -8.231034278869629
            ],
            [
                "\u2581article",
                -8.192171096801758
            ],
            [
                "os",
                -8.674711227416992
            ],
            [
                "\u2581paragraph",
                -8.17824649810791
            ],
            [
                "\u2581issues",
                -8.217785835266113
            ],
            [
                "\u2581conformidad",
                -8.331472396850586
            ],
            [
                "\u2581va",
                -8.219093322753906
            ],
            [
                "\u2581efforts",
                -8.224635124206543
            ],
            [
                "x",
                -9.026516914367676
            ],
            [
                "\u2581acceso",
                -8.354393005371094
            ],
            [
                "\u2581pol\u00edticas",
                -8.360147476196289
            ],
            [
                "\u2581primera",
                -8.316487312316895
            ],
            [
                "\u2581Security",
                -8.234806060791016
            ],
            [
                "\u2581diciembre",
                -8.351303100585938
            ],
            [
                "\u2581s\u00ed",
                -8.25013256072998
            ],
            [
                "\u2581d\u00f3lares",
                -8.336949348449707
            ],
            [
                "\u2581every",
                -8.27114486694336
            ],
            [
                "1",
                -8.721771240234375
            ],
            [
                "\u2581dijo",
                -8.291133880615234
            ],
            [
                "\u2581V",
                -8.844853401184082
            ],
            [
                "\u2581among",
                -8.23911190032959
            ],
            [
                "\u2581ser\u00e1",
                -8.305781364440918
            ],
            [
                "\u2581Unidos",
                -8.388822555541992
            ],
            [
                "\u2581atenci\u00f3n",
                -8.350569725036621
            ],
            [
                "\u2581Tambi\u00e9n",
                -8.3607177734375
            ],
            [
                "di",
                -8.738760948181152
            ],
            [
                "\u2581partes",
                -8.381752014160156
            ],
            [
                "\u2581casos",
                -8.385750770568848
            ],
            [
                "\u2581means",
                -8.26249885559082
            ],
            [
                "\u2581family",
                -8.284601211547852
            ],
            [
                "\u2581Israel",
                -8.962899208068848
            ],
            [
                "\u2581K",
                -8.8928804397583
            ],
            [
                "\u2581business",
                -8.261153221130371
            ],
            [
                "Por",
                -8.168856620788574
            ],
            [
                "\u2581full",
                -8.266721725463867
            ],
            [
                "O",
                -8.773715019226074
            ],
            [
                "\u2581training",
                -8.240421295166016
            ],
            [
                "\u2581something",
                -8.36935806274414
            ],
            [
                "\u2581service",
                -8.240570068359375
            ],
            [
                "\u2581cual",
                -8.366569519042969
            ],
            [
                "\u2581problemas",
                -8.35515308380127
            ],
            [
                "\u2581ayuda",
                -8.307390213012695
            ],
            [
                "\u2581materia",
                -8.373481750488281
            ],
            [
                "\u2581tal",
                -8.319149017333984
            ],
            [
                "\u2581/",
                -9.08703327178955
            ],
            [
                "\u2581Seguridad",
                -8.389777183532715
            ],
            [
                "\u25810",
                -9.017208099365234
            ],
            [
                "\u2581car",
                -8.4701509475708
            ],
            [
                "\u2581hotel",
                -8.97319507598877
            ],
            [
                "\u2581primer",
                -8.367178916931152
            ],
            [
                "\u2581Development",
                -8.267520904541016
            ],
            [
                "\u2581hacia",
                -8.361780166625977
            ],
            [
                "\u2581pre",
                -9.117844581604004
            ],
            [
                "\u2581adopted",
                -8.249813079833984
            ],
            [
                "\u2581regard",
                -8.2334566116333
            ],
            [
                "\u2581accordance",
                -8.245713233947754
            ],
            [
                "\u2581products",
                -8.257763862609863
            ],
            [
                "\u2581market",
                -8.23619556427002
            ],
            [
                "man",
                -9.023680686950684
            ],
            [
                "\u2581hombre",
                -8.269946098327637
            ],
            [
                "\u2581Derechos",
                -8.411615371704102
            ],
            [
                "\u2581cuesti\u00f3n",
                -8.382349967956543
            ],
            [
                "\u2581present",
                -8.259391784667969
            ],
            [
                "mo",
                -8.753753662109375
            ],
            [
                "\u2581little",
                -8.384512901306152
            ],
            [
                "\u2581Group",
                -8.292366027832031
            ],
            [
                "\u2581grupo",
                -8.380287170410156
            ],
            [
                "\u2581never",
                -8.390962600708008
            ],
            [
                "The",
                -8.354272842407227
            ],
            [
                "ca",
                -8.69467830657959
            ],
            [
                "\u2581H",
                -8.871271133422852
            ],
            [
                "\u2581really",
                -8.404264450073242
            ],
            [
                "\u2581pro",
                -8.898415565490723
            ],
            [
                "\u2581esos",
                -8.398212432861328
            ],
            [
                "\u2581:",
                -9.18515682220459
            ],
            [
                "\u2581management",
                -8.282876968383789
            ],
            [
                "ro",
                -8.810686111450195
            ],
            [
                "\u2581assistance",
                -8.27688217163086
            ],
            [
                "\u2581global",
                -8.664833068847656
            ],
            [
                "\u2581persona",
                -8.369948387145996
            ],
            [
                "\u2581draft",
                -8.277246475219727
            ],
            [
                "\u2581cent",
                -8.356099128723145
            ],
            [
                "\u2581better",
                -8.354342460632324
            ],
            [
                "\u2581water",
                -8.303170204162598
            ],
            [
                "\u2581ante",
                -8.414777755737305
            ],
            [
                "\u2581group",
                -8.28238296508789
            ],
            [
                "\u258128",
                -9.018572807312012
            ],
            [
                "\u2581punto",
                -8.37448501586914
            ],
            [
                "\u2581another",
                -8.349197387695312
            ],
            [
                "\u2581poco",
                -8.302037239074707
            ],
            [
                "ce",
                -8.882643699645996
            ],
            [
                "\u2581dentro",
                -8.394968032836914
            ],
            [
                "nos",
                -8.446651458740234
            ],
            [
                "\u2581person",
                -8.318070411682129
            ],
            [
                "\u258123",
                -9.005783081054688
            ],
            [
                "\u2581resultados",
                -8.43528938293457
            ],
            [
                "\u2581respect",
                -8.281298637390137
            ],
            [
                "\u2581based",
                -8.313227653503418
            ],
            [
                "\u2581co",
                -9.10061264038086
            ],
            [
                "the",
                -8.415508270263672
            ],
            [
                "\u2581persons",
                -8.323620796203613
            ],
            [
                "CE",
                -8.515917778015137
            ],
            [
                "\u2581decisi\u00f3n",
                -8.416278839111328
            ],
            [
                "que",
                -8.74066162109375
            ],
            [
                "\u2581Conference",
                -8.28623104095459
            ],
            [
                "\u2581off",
                -8.443146705627441
            ],
            [
                "+",
                -100
            ],
            [
                "\u2581Human",
                -8.353191375732422
            ],
            [
                "\u2581child",
                -8.335110664367676
            ],
            [
                "\u2581conditions",
                -8.310693740844727
            ],
            [
                "\u2581When",
                -8.377789497375488
            ],
            [
                "\u2581sino",
                -8.429725646972656
            ],
            [
                "\u2581given",
                -8.316943168640137
            ],
            [
                "\u2581million",
                -8.317641258239746
            ],
            [
                "\u20ac",
                -100
            ],
            [
                "\u2581mercado",
                -8.427521705627441
            ],
            [
                "\u2581muchos",
                -8.442051887512207
            ],
            [
                "\u2581community",
                -8.322635650634766
            ],
            [
                "\u2581held",
                -8.327764511108398
            ],
            [
                "\u2581Como",
                -8.40295696258545
            ],
            [
                "\u2581bajo",
                -8.424818992614746
            ],
            [
                "les",
                -8.622385025024414
            ],
            [
                "\u2581m",
                -9.05472469329834
            ],
            [
                "\u2581home",
                -8.417978286743164
            ],
            [
                "\u2581simple",
                -8.94392204284668
            ],
            [
                "\u2581relevant",
                -8.322952270507812
            ],
            [
                "\u2581love",
                -8.422608375549316
            ],
            [
                "\u2581inter",
                -9.020626068115234
            ],
            [
                "\u2581ciudad",
                -8.459247589111328
            ],
            [
                "\u2581gonna",
                -8.530667304992676
            ],
            [
                "\u2581trav\u00e9s",
                -8.471403121948242
            ],
            [
                "\u2581natural",
                -8.80588436126709
            ],
            [
                "\u2581podr\u00eda",
                -8.389015197753906
            ],
            [
                "\u2581point",
                -8.338109016418457
            ],
            [
                "\u2581Yes",
                -8.536998748779297
            ],
            [
                "\u2581programmes",
                -8.350380897521973
            ],
            [
                "\u2581around",
                -8.419073104858398
            ],
            [
                "\u2581l\u00ednea",
                -8.483572959899902
            ],
            [
                "\u2581World",
                -8.451202392578125
            ],
            [
                "\u2581National",
                -8.436426162719727
            ],
            [
                "\u2581empresas",
                -8.485040664672852
            ],
            [
                "\u2581poder",
                -8.456060409545898
            ],
            [
                ");",
                -9.068958282470703
            ],
            [
                "\u2581agua",
                -8.452818870544434
            ],
            [
                "\u2581put",
                -8.40186882019043
            ],
            [
                "\u2581Cuando",
                -8.405777931213379
            ],
            [
                "\u2581name",
                -8.417146682739258
            ],
            [
                "\u2581horas",
                -8.473520278930664
            ],
            [
                "\u2581related",
                -8.367081642150879
            ],
            [
                "\u2581look",
                -8.454188346862793
            ],
            [
                "\u2581normas",
                -8.485325813293457
            ],
            [
                "\u258150",
                -9.074216842651367
            ],
            [
                "\u2581second",
                -8.380366325378418
            ],
            [
                "\u2581account",
                -8.341028213500977
            ],
            [
                "\u2581increase",
                -8.346529006958008
            ],
            [
                "\u2581fuera",
                -8.410122871398926
            ],
            [
                "\u2581change",
                -8.3714017868042
            ],
            [
                "\u2581%",
                -9.024145126342773
            ],
            [
                "\u2581especial",
                -8.470532417297363
            ],
            [
                "\u2581EU",
                -8.405913352966309
            ],
            [
                "ne",
                -8.977622985839844
            ],
            [
                "\u258127",
                -9.078071594238281
            ],
            [
                "\u2581already",
                -8.398496627807617
            ],
            [
                "us",
                -9.031007766723633
            ],
            [
                "\u2581quality",
                -8.369330406188965
            ],
            [
                "\u2581again",
                -8.454054832458496
            ],
            [
                "\u2581gesti\u00f3n",
                -8.500682830810547
            ],
            [
                "\u2581c\u00f3mo",
                -8.427290916442871
            ],
            [
                "\u2581days",
                -8.432303428649902
            ],
            [
                "\u2581nuestros",
                -8.49232292175293
            ],
            [
                "\u2581found",
                -8.413215637207031
            ],
            [
                "ers",
                -8.549321174621582
            ],
            [
                "\u2581cases",
                -8.399782180786133
            ],
            [
                "\u2581Hotel",
                -9.072273254394531
            ],
            [
                "\u2581material",
                -9.02269458770752
            ],
            [
                "\u2581needs",
                -8.438414573669434
            ],
            [
                "\u2581idea",
                -9.024428367614746
            ],
            [
                "\u2581s\u00e9",
                -8.305456161499023
            ],
            [
                "\u2581continue",
                -8.36672592163086
            ],
            [
                "EC",
                -8.474495887756348
            ],
            [
                "\u2581veces",
                -8.471733093261719
            ],
            [
                "\u2581haber",
                -8.446120262145996
            ],
            [
                "\u2581As\u00ed",
                -8.411825180053711
            ],
            [
                "\u2581necesario",
                -8.49329662322998
            ],
            [
                "\u2581tell",
                -8.533476829528809
            ],
            [
                "\u2581always",
                -8.466764450073242
            ],
            [
                "\u2581proyectos",
                -8.548537254333496
            ],
            [
                "\u2581apartado",
                -8.487720489501953
            ],
            [
                "\u2581Conferencia",
                -8.522613525390625
            ],
            [
                "\u2581grupos",
                -8.547115325927734
            ],
            [
                "\u258126",
                -9.109013557434082
            ],
            [
                "\u2581i",
                -9.072248458862305
            ],
            [
                "\u2581servicio",
                -8.518327713012695
            ],
            [
                "\u2581Ya",
                -8.523015975952148
            ],
            [
                "\u2581educaci\u00f3n",
                -8.536134719848633
            ],
            [
                "\u25811.",
                -9.280241966247559
            ],
            [
                "\u2581basis",
                -8.392454147338867
            ],
            [
                "able",
                -8.727660179138184
            ],
            [
                "K",
                -9.240887641906738
            ],
            [
                "\u2581disposiciones",
                -8.522477149963379
            ],
            [
                "\u2581Esto",
                -8.463715553283691
            ],
            [
                "\u2581May",
                -8.47704792022705
            ],
            [
                "\u2581nueva",
                -8.515097618103027
            ],
            [
                "\u2581things",
                -8.49475383758545
            ],
            [
                "\u2581dice",
                -8.46423625946045
            ],
            [
                "\u2581investigaci\u00f3n",
                -8.539989471435547
            ],
            [
                "un",
                -9.154256820678711
            ],
            [
                "\u2581peace",
                -8.407443046569824
            ],
            [
                "ban",
                -8.564468383789062
            ],
            [
                "\u2581siguiente",
                -8.520132064819336
            ],
            [
                "\u2581parties",
                -8.410408973693848
            ],
            [
                "\u2581gente",
                -8.438915252685547
            ],
            [
                "\u2581esas",
                -8.546277046203613
            ],
            [
                "\u2581Office",
                -8.452722549438477
            ],
            [
                "\u2581armas",
                -8.53014850616455
            ],
            [
                "\u2581June",
                -8.421930313110352
            ],
            [
                "\u2581small",
                -8.441450119018555
            ],
            [
                "\u2581Europa",
                -8.571078300476074
            ],
            [
                "\u2581tema",
                -8.538415908813477
            ],
            [
                "\u2581established",
                -8.421769142150879
            ],
            [
                "\u2581Tribunal",
                -8.844433784484863
            ],
            [
                "\u2581future",
                -8.428897857666016
            ],
            [
                "\u2581problema",
                -8.480892181396484
            ],
            [
                "\u2581Europe",
                -8.449524879455566
            ],
            [
                "\u2581estoy",
                -8.363808631896973
            ],
            [
                "\u2581These",
                -8.439958572387695
            ],
            [
                "\u2581seg\u00fan",
                -8.564167976379395
            ],
            [
                "\u2581let",
                -8.547125816345215
            ],
            [
                "\u2581Desarrollo",
                -8.568968772888184
            ],
            [
                "\u2581poblaci\u00f3n",
                -8.577103614807129
            ],
            [
                "\u2581China",
                -9.12664794921875
            ],
            [
                "\u2581why",
                -8.535396575927734
            ],
            [
                "\u2581called",
                -8.474132537841797
            ],
            [
                "T",
                -8.987397193908691
            ],
            [
                "\u2581However",
                -8.43526554107666
            ],
            [
                "\u2581role",
                -8.422760009765625
            ],
            [
                "\u2581ti",
                -8.458949089050293
            ],
            [
                "\u2581objetivos",
                -8.57294750213623
            ],
            [
                "\u2581care",
                -8.487796783447266
            ],
            [
                "\u2581fueron",
                -8.576125144958496
            ],
            [
                "\u2581sociedad",
                -8.574714660644531
            ],
            [
                "\u2581might",
                -8.490489959716797
            ],
            [
                "\u2581didn",
                -8.625056266784668
            ],
            [
                "los",
                -8.609757423400879
            ],
            [
                "\u2581Special",
                -8.45113754272461
            ],
            [
                "\u2581Why",
                -8.61925983428955
            ],
            [
                "\u2581objetivo",
                -8.559325218200684
            ],
            [
                "\u2581together",
                -8.484689712524414
            ],
            [
                "\u2581haya",
                -8.526755332946777
            ],
            [
                "\u2581Bueno",
                -8.356182098388672
            ],
            [
                "\u2581example",
                -8.44799518585205
            ],
            [
                "\u2581participaci\u00f3n",
                -8.583666801452637
            ],
            [
                "\u2581project",
                -8.445584297180176
            ],
            [
                "\u2581fact",
                -8.44992446899414
            ],
            [
                "\u2581ley",
                -8.573945999145508
            ],
            [
                "\u2581specific",
                -8.443614959716797
            ],
            [
                "up",
                -8.642131805419922
            ],
            [
                "\u2581junio",
                -8.592090606689453
            ],
            [
                "\u2581trata",
                -8.566582679748535
            ],
            [
                "\u25812.",
                -9.300313949584961
            ],
            [
                "\u2581With",
                -8.491108894348145
            ],
            [
                "\u2581developing",
                -8.459664344787598
            ],
            [
                "ga",
                -8.947673797607422
            ],
            [
                "\u2581acerca",
                -8.55705738067627
            ],
            [
                "F",
                -9.131363868713379
            ],
            [
                "\u2581appropriate",
                -8.455775260925293
            ],
            [
                "ci",
                -8.996171951293945
            ],
            [
                "\u2581include",
                -8.451684951782227
            ],
            [
                "\u2581review",
                -8.466763496398926
            ],
            [
                "\u2581course",
                -8.511741638183594
            ],
            [
                "\u2581upon",
                -8.478528022766113
            ],
            [
                "\u2581crisis",
                -9.189302444458008
            ],
            [
                "\u2581labor",
                -8.724175453186035
            ],
            [
                "\u2581mejorar",
                -8.609386444091797
            ],
            [
                "\u2581doing",
                -8.61620044708252
            ],
            [
                "\u2581Ha",
                -8.865828514099121
            ],
            [
                "\u2581necesidad",
                -8.606292724609375
            ],
            [
                "\u2581staff",
                -8.481782913208008
            ],
            [
                "\u2581ello",
                -8.63127613067627
            ],
            [
                "\u2581groups",
                -8.4970703125
            ],
            [
                "\u258129",
                -9.202157974243164
            ],
            [
                "\u2581authorities",
                -8.468238830566406
            ],
            [
                "\u2581mean",
                -8.613409996032715
            ],
            [
                "\u2581ir",
                -8.507999420166016
            ],
            [
                "\u2581able",
                -8.511154174804688
            ],
            [
                "\u2581question",
                -8.485227584838867
            ],
            [
                "\u2581government",
                -8.48554515838623
            ],
            [
                "\u2581men",
                -8.54293441772461
            ],
            [
                "\u2581comunidad",
                -8.610184669494629
            ],
            [
                "\u2581Oficina",
                -8.630663871765137
            ],
            [
                "\u2581familia",
                -8.575465202331543
            ],
            [
                "\u2581actual",
                -8.888792037963867
            ],
            [
                "\u2581away",
                -8.584810256958008
            ],
            [
                "\u2581nuclear",
                -8.871758460998535
            ],
            [
                "\u2581trade",
                -8.491659164428711
            ],
            [
                "\u2581Internet",
                -9.265556335449219
            ],
            [
                "\u2581examen",
                -8.634866714477539
            ],
            [
                "\u2581Now",
                -8.626748085021973
            ],
            [
                "\u2581Don",
                -8.825129508972168
            ],
            [
                "\u2581m\u00ed",
                -8.460139274597168
            ],
            [
                "\u2581York",
                -9.213846206665039
            ],
            [
                "\u2581puedo",
                -8.43995189666748
            ],
            [
                "\u2581provisions",
                -8.50295639038086
            ],
            [
                "\u2581siguientes",
                -8.651617050170898
            ],
            [
                "\u2581Programa",
                -8.621064186096191
            ],
            [
                "\u2581acci\u00f3n",
                -8.63374137878418
            ],
            [
                "\u2022",
                -100
            ],
            [
                "\u2581An",
                -8.781078338623047
            ],
            [
                "\u2581autoridades",
                -8.638555526733398
            ],
            [
                "\u2581certain",
                -8.501727104187012
            ],
            [
                "\u2581importancia",
                -8.626840591430664
            ],
            [
                "go",
                -9.028783798217773
            ],
            [
                "\u2581reuni\u00f3n",
                -8.621139526367188
            ],
            [
                "G",
                -9.268343925476074
            ],
            [
                "\u2581effective",
                -8.50832748413086
            ],
            [
                "\u2581informes",
                -8.668561935424805
            ],
            [
                "\u2581cambio",
                -8.613998413085938
            ],
            [
                "\u2581capital",
                -9.162293434143066
            ],
            [
                "\u2581call",
                -8.596062660217285
            ],
            [
                "\u2581principal",
                -8.81906509399414
            ],
            [
                "\u2581body",
                -8.547741889953613
            ],
            [
                "\u2581misma",
                -8.599363327026367
            ],
            [
                "\u2581a\u00fan",
                -8.610207557678223
            ],
            [
                "H",
                -9.224000930786133
            ],
            [
                "M",
                -8.985684394836426
            ],
            [
                "\u2581next",
                -8.571601867675781
            ],
            [
                "\u2581capacity",
                -8.515090942382812
            ],
            [
                "La",
                -8.72500991821289
            ],
            [
                "\u2581common",
                -8.51540470123291
            ],
            [
                "\u2581fecha",
                -8.643594741821289
            ],
            [
                "\u2581Hey",
                -8.866053581237793
            ],
            [
                "\u2581July",
                -8.528767585754395
            ],
            [
                "\u2581Co",
                -9.142624855041504
            ],
            [
                "\u2581mis",
                -8.735453605651855
            ],
            [
                "\u2581Your",
                -8.628302574157715
            ],
            [
                "\u2581necesidades",
                -8.654275894165039
            ],
            [
                "\u2581concerned",
                -8.516273498535156
            ],
            [
                "\u2581mientras",
                -8.633910179138184
            ],
            [
                "\u2581therefore",
                -8.522021293640137
            ],
            [
                "\u2581hoy",
                -8.589701652526855
            ],
            [
                "\u2581city",
                -8.570211410522461
            ],
            [
                "\u2581One",
                -8.62940788269043
            ],
            [
                "\u2581*",
                -9.30097770690918
            ],
            [
                "\u2581Court",
                -8.557710647583008
            ],
            [
                "\u2581main",
                -8.548093795776367
            ],
            [
                "\u2581power",
                -8.553860664367676
            ],
            [
                "\u2581society",
                -8.549897193908691
            ],
            [
                "\u2581diferentes",
                -8.669677734375
            ],
            [
                "\u2581Go",
                -9.08830738067627
            ],
            [
                "El",
                -8.674275398254395
            ],
            [
                "\u2581unos",
                -8.651534080505371
            ],
            [
                "con",
                -9.190535545349121
            ],
            [
                "\u00bb",
                -8.944512367248535
            ],
            [
                "\u2581institutions",
                -8.542267799377441
            ],
            [
                "\u2581instituciones",
                -8.675447463989258
            ],
            [
                "\u2581Let",
                -8.695709228515625
            ],
            [
                "\u2581debate",
                -9.173881530761719
            ],
            [
                "\u2581efectos",
                -8.676898002624512
            ],
            [
                "\u2581whether",
                -8.536697387695312
            ],
            [
                "\u2581technical",
                -8.547468185424805
            ],
            [
                "\u2581regi\u00f3n",
                -8.685420989990234
            ],
            [
                "\u2581equipo",
                -8.656394958496094
            ],
            [
                "\u2581form",
                -8.602023124694824
            ],
            [
                "\u2581today",
                -8.611650466918945
            ],
            [
                "C\u00f3mo",
                -8.500622749328613
            ],
            [
                "\u2581location",
                -8.530755996704102
            ],
            [
                "\u2581done",
                -8.623714447021484
            ],
            [
                "\u2581house",
                -8.617508888244629
            ],
            [
                "\u2581deber\u00eda",
                -8.623200416564941
            ],
            [
                "\u2581algunas",
                -8.663039207458496
            ],
            [
                "\u2581nuevas",
                -8.69035530090332
            ],
            [
                "\u2581t\u00fa",
                -8.484212875366211
            ],
            [
                "\u2581Especial",
                -8.689178466796875
            ],
            [
                "\u2581experience",
                -8.551518440246582
            ],
            [
                "\u2581tengo",
                -8.48567008972168
            ],
            [
                "\u2581thing",
                -8.684045791625977
            ],
            [
                "\u2581plazo",
                -8.669306755065918
            ],
            [
                "\u2581room",
                -8.61444091796875
            ],
            [
                "\u2581medios",
                -8.71092414855957
            ],
            [
                "\u2581open",
                -8.583459854125977
            ],
            [
                "\u2581third",
                -8.556490898132324
            ],
            [
                "\u2581medida",
                -8.669373512268066
            ],
            [
                "\u2581esfuerzos",
                -8.685737609863281
            ],
            [
                "\u2581various",
                -8.551100730895996
            ],
            [
                "\u2581Art\u00edculo",
                -8.667487144470215
            ],
            [
                "\u2581above",
                -8.56583023071289
            ],
            [
                "\u2581Gracias",
                -8.507682800292969
            ],
            [
                "\u2581agenda",
                -8.729890823364258
            ],
            [
                "\u2581sesi\u00f3n",
                -8.694966316223145
            ],
            [
                "\u2581abogados",
                -8.684477806091309
            ],
            [
                "W",
                -9.408990859985352
            ],
            [
                "\u2581Come",
                -8.855463027954102
            ],
            [
                "\u2581reports",
                -8.620898246765137
            ],
            [
                "\u2581results",
                -8.589661598205566
            ],
            [
                "\u2581J",
                -9.20560359954834
            ],
            [
                "\u2581incluso",
                -8.690045356750488
            ],
            [
                "\u2581Ley",
                -8.72193431854248
            ],
            [
                "\u2581entonces",
                -8.640731811523438
            ],
            [
                "\u258140",
                -9.292633056640625
            ],
            [
                "\u2581sociales",
                -8.71940803527832
            ],
            [
                "\u2581considered",
                -8.582164764404297
            ],
            [
                "\u2581result",
                -8.573513984680176
            ],
            [
                "\u2581dicho",
                -8.625399589538574
            ],
            [
                "\u2581taking",
                -8.611078262329102
            ],
            [
                "\u2581dar",
                -8.676291465759277
            ],
            [
                "\u2581rules",
                -8.580915451049805
            ],
            [
                "\u2581progress",
                -8.591222763061523
            ],
            [
                "\u2014",
                -8.984024047851562
            ],
            [
                "\u2581libre",
                -8.704283714294434
            ],
            [
                "\u2581julio",
                -8.727738380432129
            ],
            [
                "\u2581Se\u00f1or",
                -8.66811752319336
            ],
            [
                "\u2581current",
                -8.600086212158203
            ],
            [
                "\u2581October",
                -8.602211952209473
            ],
            [
                "\u2581hombres",
                -8.698773384094238
            ],
            [
                "\u25811,",
                -9.60913372039795
            ],
            [
                "\u2581meses",
                -8.70254898071289
            ],
            [
                "\u2581responsabilidad",
                -8.69675064086914
            ],
            [
                "st",
                -9.261929512023926
            ],
            [
                "\u2581become",
                -8.584052085876465
            ],
            [
                "\u2581few",
                -8.643402099609375
            ],
            [
                "\u2581Africa",
                -8.645247459411621
            ],
            [
                "\u2581until",
                -8.639689445495605
            ],
            [
                "\u2581modo",
                -8.693074226379395
            ],
            [
                "\u2581noche",
                -8.574787139892578
            ],
            [
                "\u2581di",
                -9.123353004455566
            ],
            [
                "\u2581especialmente",
                -8.721295356750488
            ],
            [
                "\u2581mayor\u00eda",
                -8.726568222045898
            ],
            [
                "\u2581region",
                -8.58314323425293
            ],
            [
                "N",
                -9.182921409606934
            ],
            [
                "\u2581100",
                -9.319366455078125
            ],
            [
                "\u2581anti",
                -9.28182315826416
            ],
            [
                "\u2581issue",
                -8.584968566894531
            ],
            [
                "\u2581old",
                -8.694306373596191
            ],
            [
                "ia",
                -9.31181526184082
            ],
            [
                "\u00b0",
                -100
            ],
            [
                "\u2581times",
                -8.734942436218262
            ],
            [
                "\u2581November",
                -8.599247932434082
            ],
            [
                "\u2581violencia",
                -8.755899429321289
            ],
            [
                "\u2581English",
                -8.864557266235352
            ],
            [
                "\u2581application",
                -8.575698852539062
            ],
            [
                "\u2581Parlamento",
                -8.716659545898438
            ],
            [
                "\u2581September",
                -8.616755485534668
            ],
            [
                "\u2581producci\u00f3n",
                -8.73151683807373
            ],
            [
                "\u2581cultural",
                -9.055225372314453
            ],
            [
                "\u2581pueblo",
                -8.696650505065918
            ],
            [
                "\u2581lista",
                -8.70732307434082
            ],
            [
                "\u2581Humanos",
                -8.74283504486084
            ],
            [
                "\u2581zona",
                -8.727156639099121
            ],
            [
                "\u2581media",
                -9.15665340423584
            ],
            [
                "\u2581field",
                -8.60262680053711
            ],
            [
                "\u2581cabo",
                -8.743499755859375
            ],
            [
                "\u2581required",
                -8.60628890991211
            ],
            [
                "\u2581private",
                -8.62278938293457
            ],
            [
                "\u2581March",
                -8.64100170135498
            ],
            [
                "\u2581least",
                -8.635960578918457
            ],
            [
                "\u2581mundial",
                -8.745965003967285
            ],
            [
                "\u2581verdad",
                -8.599004745483398
            ],
            [
                "\u2581Mundial",
                -8.74411678314209
            ],
            [
                "\u2581Hay",
                -8.695582389831543
            ],
            [
                "\u2581centro",
                -8.750837326049805
            ],
            [
                "\u2581\u201d",
                -9.013040542602539
            ],
            [
                "\u2581Europeo",
                -8.717362403869629
            ],
            [
                "ic",
                -9.023367881774902
            ],
            [
                "\u25812000",
                -9.185117721557617
            ],
            [
                "\u2581improve",
                -8.619330406188965
            ],
            [
                "\u2581red",
                -9.183768272399902
            ],
            [
                "\u2581large",
                -8.62235164642334
            ],
            [
                "\u2581experiencia",
                -8.736808776855469
            ],
            [
                "\u2581valor",
                -8.742892265319824
            ],
            [
                "\u2581empresa",
                -8.730311393737793
            ],
            [
                "\u2581problem",
                -8.648947715759277
            ],
            [
                "\u2581tus",
                -8.749564170837402
            ],
            [
                "\u2581individual",
                -8.896748542785645
            ],
            [
                "\u2581Car",
                -9.192434310913086
            ],
            [
                "\u2581addition",
                -8.62639331817627
            ],
            [
                "\u2581food",
                -8.626073837280273
            ],
            [
                "ity",
                -8.894932746887207
            ],
            [
                "\u25812005",
                -9.227509498596191
            ],
            [
                "\u2581nuevos",
                -8.771269798278809
            ],
            [
                "\u2581pasado",
                -8.688321113586426
            ],
            [
                "#",
                -100
            ],
            [
                "\u2581light",
                -8.63085651397705
            ],
            [
                "\u2581evaluaci\u00f3n",
                -8.760885238647461
            ],
            [
                "\u2581est\u00e1s",
                -8.638235092163086
            ],
            [
                "\u2581largo",
                -8.742353439331055
            ],
            [
                "\u2581state",
                -8.639832496643066
            ],
            [
                "\u2581nunca",
                -8.640363693237305
            ],
            [
                "\u2581central",
                -9.365471839904785
            ],
            [
                "\u2581octubre",
                -8.789796829223633
            ],
            [
                "\u2581play",
                -8.720800399780273
            ],
            [
                "\u2581subject",
                -8.617120742797852
            ],
            [
                "\u2581force",
                -8.627471923828125
            ],
            [
                "\u2581Parliament",
                -8.605311393737793
            ],
            [
                "\u2581took",
                -8.703574180603027
            ],
            [
                "\u2581believe",
                -8.701004028320312
            ],
            [
                "\u2581fundamental",
                -9.354671478271484
            ],
            [
                "\u2581budget",
                -8.626996040344238
            ],
            [
                "\u2581population",
                -8.639183044433594
            ],
            [
                "\u2581whole",
                -8.685402870178223
            ],
            [
                "\u2581night",
                -8.757563591003418
            ],
            [
                "\u2581organizaci\u00f3n",
                -8.762918472290039
            ],
            [
                "V",
                -9.341983795166016
            ],
            [
                "\u2581principales",
                -8.78406047821045
            ],
            [
                "\u2581sexual",
                -9.351653099060059
            ],
            [
                "\u2581problems",
                -8.63530158996582
            ],
            [
                "\u2581having",
                -8.686126708984375
            ],
            [
                "\u2581lucha",
                -8.755855560302734
            ],
            [
                "\u2581p\u00fablico",
                -8.766495704650879
            ],
            [
                "\u2581hand",
                -8.675835609436035
            ],
            [
                "\u2581noviembre",
                -8.790661811828613
            ],
            [
                "\u25812007",
                -9.324899673461914
            ],
            [
                "\u2581sitio",
                -8.743814468383789
            ],
            [
                "ja",
                -9.070693969726562
            ],
            [
                "\u2581policies",
                -8.640523910522461
            ],
            [
                "pa",
                -9.04478931427002
            ],
            [
                "\u2581garantizar",
                -8.79106330871582
            ],
            [
                "4",
                -9.087661743164062
            ],
            [
                "\u2581Economic",
                -8.660194396972656
            ],
            [
                "--",
                -9.69934368133545
            ],
            [
                "las",
                -8.834406852722168
            ],
            [
                "ation",
                -8.972723960876465
            ],
            [
                "\u2581Ahora",
                -8.639979362487793
            ],
            [
                "\u2581km",
                -9.39564323425293
            ],
            [
                "\u2581anexo",
                -8.751304626464844
            ],
            [
                "\u2581documento",
                -8.767558097839355
            ],
            [
                "\u2581left",
                -8.740888595581055
            ],
            [
                "\u2581objeto",
                -8.773268699645996
            ],
            [
                "\u2581etc",
                -9.36002254486084
            ],
            [
                "\u2581show",
                -8.782270431518555
            ],
            [
                "\u25813.",
                -9.53275203704834
            ],
            [
                "\u2581production",
                -8.645090103149414
            ],
            [
                "\u2581grandes",
                -8.780750274658203
            ],
            [
                "\u2581using",
                -8.681044578552246
            ],
            [
                "\u2581Organizaci\u00f3n",
                -8.783248901367188
            ],
            [
                "\u2581papel",
                -8.785980224609375
            ],
            [
                "\u2581several",
                -8.679105758666992
            ],
            [
                "\u2581Nacional",
                -8.862932205200195
            ],
            [
                "\u2581Pro",
                -9.319794654846191
            ],
            [
                "\u2581quiero",
                -8.592920303344727
            ],
            [
                "\u2581Jesus",
                -8.723825454711914
            ],
            [
                "\u2581Plan",
                -9.415122985839844
            ],
            [
                "\u2581septiembre",
                -8.812247276306152
            ],
            [
                "\u2581four",
                -8.703333854675293
            ],
            [
                "\u2581empleo",
                -8.788789749145508
            ],
            [
                "\u2581money",
                -8.75570011138916
            ],
            [
                "\u2581Can",
                -9.048736572265625
            ],
            [
                "\u25812006",
                -9.243735313415527
            ],
            [
                "\u2581cuatro",
                -8.78464412689209
            ],
            [
                "\u2581sub",
                -9.400269508361816
            ],
            [
                "\u2581violence",
                -8.695130348205566
            ],
            [
                "\u2581January",
                -8.681164741516113
            ],
            [
                "\u2581Programme",
                -8.65184211730957
            ],
            [
                "\u2581producto",
                -8.80621337890625
            ],
            [
                "\u2581treatment",
                -8.652392387390137
            ],
            [
                "\u2581Est\u00e1",
                -8.597522735595703
            ],
            [
                "\u2581respuesta",
                -8.784385681152344
            ],
            [
                "r\u00e1",
                -8.60183048248291
            ],
            [
                "\u2581formaci\u00f3n",
                -8.821527481079102
            ],
            [
                "\u2581miembro",
                -8.778486251831055
            ],
            [
                "w",
                -9.398563385009766
            ],
            [
                "\u2581projects",
                -8.696036338806152
            ],
            [
                "\u2581months",
                -8.72367000579834
            ],
            [
                "):",
                -9.558754920959473
            ],
            [
                "\u25812004",
                -9.268592834472656
            ],
            [
                "\u2581Eso",
                -8.605863571166992
            ],
            [
                "\u2581levels",
                -8.707947731018066
            ],
            [
                "ter",
                -9.327423095703125
            ],
            [
                "\u2581research",
                -8.682548522949219
            ],
            [
                "ti",
                -9.285468101501465
            ],
            [
                "\u2581Comunidad",
                -8.806234359741211
            ],
            [
                "\u2581sentido",
                -8.762951850891113
            ],
            [
                "\u2581Nueva",
                -8.819284439086914
            ],
            [
                "\u2581risk",
                -8.681865692138672
            ],
            [
                "\u2581hab\u00edan",
                -8.828234672546387
            ],
            [
                "\u2581adem\u00e1s",
                -8.816471099853516
            ],
            [
                "\u2581came",
                -8.769594192504883
            ],
            [
                "\u2581South",
                -8.780084609985352
            ],
            [
                "\u2581cuanto",
                -8.78333854675293
            ],
            [
                "\u2581frente",
                -8.799678802490234
            ],
            [
                "\u2581address",
                -8.703949928283691
            ],
            [
                "\u2581others",
                -8.8338623046875
            ],
            [
                "\u2581propuesta",
                -8.808039665222168
            ],
            [
                "\u2581Where",
                -8.81921672821045
            ],
            [
                "\u2581due",
                -8.692926406860352
            ],
            [
                "\u2581muchas",
                -8.800857543945312
            ],
            [
                "\u2581creaci\u00f3n",
                -8.820016860961914
            ],
            [
                "\u2581siendo",
                -8.811699867248535
            ],
            [
                "\u2581particularly",
                -8.694416999816895
            ],
            [
                "$",
                -10.019636154174805
            ],
            [
                "\u2581THE",
                -8.730496406555176
            ],
            [
                "\u2581requirements",
                -8.68929386138916
            ],
            [
                "idad",
                -9.070503234863281
            ],
            [
                "\u2581juego",
                -8.801301002502441
            ],
            [
                "\u2581falta",
                -8.803107261657715
            ],
            [
                "\u2581dinero",
                -8.711318016052246
            ],
            [
                "\u2581da",
                -8.959218978881836
            ],
            [
                "\u2581energy",
                -8.70552921295166
            ],
            [
                "\u2581cannot",
                -8.71882438659668
            ],
            [
                "\u2581young",
                -8.74637222290039
            ],
            [
                "\u2581framework",
                -8.69294261932373
            ],
            [
                "\u2581gastos",
                -8.844239234924316
            ],
            [
                "\u2581--",
                -9.33741569519043
            ],
            [
                "\u2581zonas",
                -8.872701644897461
            ],
            [
                "\u2581recomendaciones",
                -8.848194122314453
            ],
            [
                "\u2581ofrece",
                -8.846248626708984
            ],
            [
                "\u2581living",
                -8.747090339660645
            ],
            [
                "\u2581tenemos",
                -8.73128890991211
            ],
            [
                "\u2581terms",
                -8.726873397827148
            ],
            [
                "\u2581funci\u00f3n",
                -8.848596572875977
            ],
            [
                "\u2581segundo",
                -8.798227310180664
            ],
            [
                "\u2581enero",
                -8.881672859191895
            ],
            [
                "\u2581matter",
                -8.736348152160645
            ],
            [
                "\u2581sistemas",
                -8.877002716064453
            ],
            [
                "\u2581police",
                -8.755722999572754
            ],
            [
                "\u2581Partes",
                -8.850581169128418
            ],
            [
                "ste",
                -8.851859092712402
            ],
            [
                "\u2581mayo",
                -8.861095428466797
            ],
            [
                "\u2581less",
                -8.736686706542969
            ],
            [
                "so",
                -9.16667366027832
            ],
            [
                "\u2581marzo",
                -8.864104270935059
            ],
            [
                "\u2581school",
                -8.765833854675293
            ],
            [
                "\u2581hizo",
                -8.792415618896484
            ],
            [
                "\u2581More",
                -8.8373384475708
            ],
            [
                "\u2581tierra",
                -8.83694076538086
            ],
            [
                "\u2581recommendations",
                -8.741124153137207
            ],
            [
                "\u2581far",
                -8.763460159301758
            ],
            [
                "va",
                -9.152915954589844
            ],
            [
                "\u2581n",
                -9.175644874572754
            ],
            [
                "\u2581keep",
                -8.801789283752441
            ],
            [
                "\u2581varios",
                -8.858991622924805
            ],
            [
                "\u2581His",
                -8.790680885314941
            ],
            [
                "\u2581yet",
                -8.781913757324219
            ],
            [
                "it",
                -9.233019828796387
            ],
            [
                "\u2581com\u00fan",
                -8.838932037353516
            ],
            [
                "\u2581systems",
                -8.779129028320312
            ],
            [
                "\u2581pr\u00e1ctica",
                -8.841508865356445
            ],
            [
                "\u2581live",
                -8.767781257629395
            ],
            [
                "v",
                -9.348398208618164
            ],
            [
                "\u2581hemos",
                -8.799163818359375
            ],
            [
                "\u2581saber",
                -8.788168907165527
            ],
            [
                "\u2581received",
                -8.743461608886719
            ],
            [
                "\u2581tratamiento",
                -8.847272872924805
            ],
            [
                "\u25812008",
                -9.352192878723145
            ],
            [
                "\u2581especially",
                -8.745137214660645
            ],
            [
                "pe",
                -9.31186294555664
            ],
            [
                "\u2581virtud",
                -8.859582901000977
            ],
            [
                "\u2581W",
                -9.266225814819336
            ],
            [
                "\u2581importantes",
                -8.892402648925781
            ],
            [
                "\u2581estudio",
                -8.862796783447266
            ],
            [
                ".1",
                -9.49433708190918
            ],
            [
                "dor",
                -8.884187698364258
            ],
            [
                "\u2581product",
                -8.733916282653809
            ],
            [
                "\u25812,",
                -9.718343734741211
            ],
            [
                "\u2581concerning",
                -8.725117683410645
            ],
            [
                "\u2581Mar",
                -9.336909294128418
            ],
            [
                "\u2581developed",
                -8.75163459777832
            ],
            [
                "\u2581obtener",
                -8.877821922302246
            ],
            [
                "\u2581principio",
                -8.84843921661377
            ],
            [
                "ol",
                -9.094433784484863
            ],
            [
                "ado",
                -8.94434928894043
            ],
            [
                "tu",
                -9.261332511901855
            ],
            [
                "\u2581sure",
                -8.872955322265625
            ],
            [
                "\u2581principios",
                -8.894164085388184
            ],
            [
                "\u2581April",
                -8.780970573425293
            ],
            [
                "\u2581clear",
                -8.770666122436523
            ],
            [
                "\u2581list",
                -8.760421752929688
            ],
            [
                "\u2581arreglo",
                -8.857563018798828
            ],
            [
                "\u2581major",
                -8.755036354064941
            ],
            [
                "\u2581edad",
                -8.881569862365723
            ],
            [
                "\u2581making",
                -8.786178588867188
            ],
            [
                "r\u00eda",
                -8.834969520568848
            ],
            [
                "\u2581file",
                -8.749757766723633
            ],
            [
                "\u2581buena",
                -8.787172317504883
            ],
            [
                "\u2581ambiente",
                -8.888790130615234
            ],
            [
                "\u2581heart",
                -8.793352127075195
            ],
            [
                "De",
                -8.951201438903809
            ],
            [
                "\u2581kind",
                -8.82188606262207
            ],
            [
                "\u2581thought",
                -8.869568824768066
            ],
            [
                "\u2581partir",
                -8.879361152648926
            ],
            [
                "\u2581dem\u00e1s",
                -8.858072280883789
            ],
            [
                "\u2581towards",
                -8.76702880859375
            ],
            [
                "\u2581America",
                -8.81236457824707
            ],
            [
                "\u2581UE",
                -8.880529403686523
            ],
            [
                "\u2581five",
                -8.791378021240234
            ],
            [
                "\u2581Organization",
                -8.74850845336914
            ],
            [
                "\u2581tomar",
                -8.854952812194824
            ],
            [
                "\u2581agreement",
                -8.748926162719727
            ],
            [
                "\u2581sigue",
                -8.86960220336914
            ],
            [
                "\u2581line",
                -8.766887664794922
            ],
            [
                "\u25812009",
                -9.417354583740234
            ],
            [
                "\u2581age",
                -8.784866333007812
            ],
            [
                "\u2581land",
                -8.773494720458984
            ],
            [
                "\u2581date",
                -8.765619277954102
            ],
            [
                "\u2581importance",
                -8.766979217529297
            ],
            [
                "\u25812003",
                -9.357853889465332
            ],
            [
                "mi",
                -9.246101379394531
            ],
            [
                "\u2581soy",
                -8.708975791931152
            ],
            [
                "\u2581crear",
                -8.910120964050293
            ],
            [
                "\u2581request",
                -8.747998237609863
            ],
            [
                "\u2581hablar",
                -8.748237609863281
            ],
            [
                ".2",
                -9.695794105529785
            ],
            [
                "\u2581\u00faltimo",
                -8.866790771484375
            ],
            [
                "\u25812002",
                -9.347607612609863
            ],
            [
                "\u2581presupuesto",
                -8.890585899353027
            ],
            [
                "\u2581historia",
                -8.843520164489746
            ],
            [
                "\u2581libertad",
                -8.912016868591309
            ],
            [
                "\u2581post",
                -9.037908554077148
            ],
            [
                "\u2581seguir",
                -8.870436668395996
            ],
            [
                "\u2581pueda",
                -8.845772743225098
            ],
            [
                "\u2581company",
                -8.793573379516602
            ],
            [
                "\u2581riesgo",
                -8.887502670288086
            ],
            [
                "\u2581u",
                -9.00815200805664
            ],
            [
                "\u2581study",
                -8.785225868225098
            ],
            [
                "\u2581environment",
                -8.754015922546387
            ],
            [
                "\u2581proposed",
                -8.776412963867188
            ],
            [
                "\u2581Nos",
                -8.977259635925293
            ],
            [
                "ble",
                -9.270934104919434
            ],
            [
                "nte",
                -8.88718032836914
            ],
            [
                "\u2581ejecuci\u00f3n",
                -8.916272163391113
            ],
            [
                "\u2581aumentar",
                -8.92318058013916
            ],
            [
                "\u2581mar",
                -8.997893333435059
            ],
            [
                "\u2581aunque",
                -8.89525032043457
            ],
            [
                "\u2581gobierno",
                -8.901914596557617
            ],
            [
                "\u2581Okay",
                -9.003713607788086
            ],
            [
                "\u2581position",
                -8.776322364807129
            ],
            [
                "\u2581Asia",
                -9.552745819091797
            ],
            [
                "\u2581encontrar",
                -8.858942985534668
            ],
            [
                "\u2581\u00c1frica",
                -8.915817260742188
            ],
            [
                "por",
                -8.978096008300781
            ],
            [
                "\u2581cinco",
                -8.900357246398926
            ],
            [
                "\u2581inter\u00e9s",
                -8.921359062194824
            ],
            [
                "\u2581additional",
                -8.793671607971191
            ],
            [
                "\u2581III",
                -9.49472427368164
            ],
            [
                "\u25812010",
                -9.448898315429688
            ],
            [
                "\u2581ten\u00eda",
                -8.820656776428223
            ],
            [
                "*",
                -9.499122619628906
            ],
            [
                "\u2581hijo",
                -8.821684837341309
            ],
            [
                "ria",
                -9.330129623413086
            ],
            [
                "\u2581decisiones",
                -8.930462837219238
            ],
            [
                "\u2581futuro",
                -8.87739086151123
            ],
            [
                "\u2581gracias",
                -8.828776359558105
            ],
            [
                "\u2581promover",
                -8.934353828430176
            ],
            [
                "\u2581ever",
                -8.908330917358398
            ],
            [
                "\u201d.",
                -9.577532768249512
            ],
            [
                "\u2581feel",
                -8.893628120422363
            ],
            [
                "\u2581polic\u00eda",
                -8.8770751953125
            ],
            [
                "\u2581regionales",
                -8.949800491333008
            ],
            [
                "\u2581art\u00edculos",
                -8.998405456542969
            ],
            [
                "\u2581parece",
                -8.81061840057373
            ],
            [
                "\u2581attention",
                -8.810288429260254
            ],
            [
                "\u2581efecto",
                -8.9080171585083
            ],
            [
                "\u2581aumento",
                -8.922322273254395
            ],
            [
                "\u2581formas",
                -8.971455574035645
            ],
            [
                "\u2581orden",
                -8.91763687133789
            ],
            [
                "\u2581relativas",
                -8.94901180267334
            ],
            [
                "R",
                -9.20054817199707
            ],
            [
                "\u2581Na",
                -9.440018653869629
            ],
            [
                "ton",
                -9.52416706085205
            ],
            [
                "ry",
                -9.514151573181152
            ],
            [
                "\u2581Our",
                -8.849695205688477
            ],
            [
                "\u2581key",
                -8.823348045349121
            ],
            [
                "\u2581interest",
                -8.795660018920898
            ],
            [
                "En",
                -8.949463844299316
            ],
            [
                "\u2581nota",
                -8.930401802062988
            ],
            [
                "\u2581legislation",
                -8.80846118927002
            ],
            [
                "\u2581included",
                -8.827397346496582
            ],
            [
                "\u2581meet",
                -8.852838516235352
            ],
            [
                "\u2581Central",
                -9.221601486206055
            ],
            [
                "\u2581close",
                -8.876444816589355
            ],
            [
                "\u2581ninguna",
                -8.900534629821777
            ],
            [
                "\u2581mal",
                -8.926087379455566
            ],
            [
                "\u2581cerca",
                -8.921503067016602
            ],
            [
                "\u2581abril",
                -8.96586799621582
            ],
            [
                "\u2581providing",
                -8.824007034301758
            ],
            [
                "be",
                -9.49936294555664
            ],
            [
                "ten",
                -9.371352195739746
            ],
            [
                "\u2581military",
                -8.840340614318848
            ],
            [
                "\u2581software",
                -9.41470718383789
            ],
            [
                "\u2581Not",
                -8.986212730407715
            ],
            [
                "net",
                -9.558431625366211
            ],
            [
                "\u2581tras",
                -8.962163925170898
            ],
            [
                "\u2581impact",
                -8.811822891235352
            ],
            [
                "\u2581Dr",
                -9.49881649017334
            ],
            [
                "\u2581ni\u00f1o",
                -8.89414119720459
            ],
            [
                "\u2581operaciones",
                -8.953201293945312
            ],
            [
                "\u2581M\u00e1s",
                -8.972293853759766
            ],
            [
                "\u2581bodies",
                -8.828829765319824
            ],
            [
                "\u00fc",
                -100
            ],
            [
                "\u2581legislaci\u00f3n",
                -8.950301170349121
            ],
            [
                "\u2581similar",
                -9.182459831237793
            ],
            [
                "\u2581hijos",
                -8.95174503326416
            ],
            [
                "\u2581told",
                -8.965836524963379
            ],
            [
                "\u2581debido",
                -8.961389541625977
            ],
            [
                "res",
                -8.904946327209473
            ],
            [
                "\u2581vista",
                -8.930562973022461
            ],
            [
                "\u2581quien",
                -8.898633003234863
            ],
            [
                "\u2581puedes",
                -8.90024471282959
            ],
            [
                "\u2581Que",
                -8.868152618408203
            ],
            [
                "\u2581comunicaci\u00f3n",
                -8.96185302734375
            ],
            [
                "\u2581tienes",
                -8.830282211303711
            ],
            [
                "\u2581anything",
                -8.981317520141602
            ],
            [
                "\u2581hora",
                -8.8627347946167
            ],
            [
                "\u2581once",
                -8.93828296661377
            ],
            [
                "\u2581item",
                -8.820892333984375
            ],
            [
                "\u2581procedimiento",
                -8.95137882232666
            ],
            [
                "\u2581energ\u00eda",
                -8.935160636901855
            ],
            [
                "\u2581Please",
                -8.927605628967285
            ],
            [
                "\u2581haciendo",
                -8.838483810424805
            ],
            [
                "\u2581organismos",
                -8.965682029724121
            ],
            [
                "\u2581X",
                -9.57473373413086
            ],
            [
                "\u2581Act",
                -8.836259841918945
            ],
            [
                "\u2581Di",
                -9.435718536376953
            ],
            [
                "\u2581member",
                -8.83260440826416
            ],
            [
                "\u2581Iraq",
                -9.446271896362305
            ],
            [
                "\u25812001",
                -9.404833793640137
            ],
            [
                "\u2581correspondiente",
                -8.97301959991455
            ],
            [
                "\u2581fondos",
                -8.989059448242188
            ],
            [
                "\u2581approach",
                -8.840394973754883
            ],
            [
                "\u2581Law",
                -8.889662742614746
            ],
            [
                "\u2581lawyers",
                -8.833508491516113
            ],
            [
                "\u2581costs",
                -8.855446815490723
            ],
            [
                "\u2581podemos",
                -8.890506744384766
            ],
            [
                "\u00ed",
                -9.197004318237305
            ],
            [
                "\u2581promote",
                -8.832627296447754
            ],
            [
                "\u2581space",
                -8.855737686157227
            ],
            [
                "\u2581Board",
                -8.851981163024902
            ],
            [
                "\u2581transporte",
                -8.932565689086914
            ],
            [
                "\u2581lado",
                -9.087969779968262
            ],
            [
                "\u2581j\u00f3venes",
                -8.965975761413574
            ],
            [
                "\u2581Trabajo",
                -8.965929985046387
            ],
            [
                "\u2581p\u00fablica",
                -8.960232734680176
            ],
            [
                "\u258160",
                -9.54163646697998
            ],
            [
                "\u2581death",
                -8.881946563720703
            ],
            [
                "\u2581superior",
                -9.082694053649902
            ],
            [
                "\u2581alto",
                -8.956586837768555
            ],
            [
                "rse",
                -8.763497352600098
            ],
            [
                "\u2581archivo",
                -8.967914581298828
            ],
            [
                "\u2581establecimiento",
                -8.985572814941406
            ],
            [
                "\u2581resultado",
                -8.970953941345215
            ],
            [
                "\u2581Parte",
                -8.944835662841797
            ],
            [
                "\u2581TV",
                -9.415891647338867
            ],
            [
                "ment",
                -9.342182159423828
            ],
            [
                "\u2581Directiva",
                -8.939976692199707
            ],
            [
                "\u2581fe",
                -9.188824653625488
            ],
            [
                "\u2581participation",
                -8.853653907775879
            ],
            [
                "\u2581se\u00f1or",
                -8.799198150634766
            ],
            [
                "\u2581an\u00e1lisis",
                -8.983609199523926
            ],
            [
                "\u2581amount",
                -8.83068561553955
            ],
            [
                "\u2581Miembros",
                -8.992398262023926
            ],
            [
                "\u2581aid",
                -8.826626777648926
            ],
            [
                "\u2581original",
                -9.425854682922363
            ],
            [
                "ya",
                -9.404096603393555
            ],
            [
                "\u2581fully",
                -8.862414360046387
            ],
            [
                "\u2581lograr",
                -8.983209609985352
            ],
            [
                "\u2581financiaci\u00f3n",
                -8.977646827697754
            ],
            [
                "\u2581document",
                -8.841114044189453
            ],
            [
                "\u2581estamos",
                -8.89304256439209
            ],
            [
                "\u2581provides",
                -8.886796951293945
            ],
            [
                "\u2581categor\u00eda",
                -8.966541290283203
            ],
            [
                "\u2581start",
                -8.906139373779297
            ],
            [
                "\u2581serie",
                -8.986639976501465
            ],
            [
                "\u2581Vamos",
                -8.756136894226074
            ],
            [
                "X",
                -9.585572242736816
            ],
            [
                "\u2581locales",
                -9.004646301269531
            ],
            [
                "\u2581espacio",
                -8.959446907043457
            ],
            [
                "\u2581pr\u00e1cticas",
                -9.017489433288574
            ],
            [
                "\u2581talk",
                -8.990689277648926
            ],
            [
                "ver",
                -9.255914688110352
            ],
            [
                "tra",
                -9.386443138122559
            ],
            [
                "\u2581encuentra",
                -8.997743606567383
            ],
            [
                "\u2581please",
                -8.98276424407959
            ],
            [
                "\u2581Directive",
                -8.813214302062988
            ],
            [
                "il",
                -9.607378005981445
            ],
            [
                "\u2581precios",
                -9.00313949584961
            ],
            [
                "bo",
                -9.261610984802246
            ],
            [
                "\u2581sean",
                -9.007160186767578
            ],
            [
                "\u2581mind",
                -8.937284469604492
            ],
            [
                "\u2581meetings",
                -8.897990226745605
            ],
            [
                "\u2581lot",
                -8.961034774780273
            ],
            [
                "\u2581bring",
                -8.910463333129883
            ],
            [
                "\u2581video",
                -9.308097839355469
            ],
            [
                "\u2581padre",
                -8.84707260131836
            ],
            [
                "fi",
                -9.570511817932129
            ],
            [
                "\u2581seguro",
                -8.907171249389648
            ],
            [
                "\u2581cost",
                -8.863435745239258
            ],
            [
                "\u2581Just",
                -9.060820579528809
            ],
            [
                "sa",
                -9.011475563049316
            ],
            [
                "\u2581Ver",
                -9.255184173583984
            ],
            [
                "\u2581muerte",
                -8.943605422973633
            ],
            [
                "per",
                -9.680970191955566
            ],
            [
                "\u2581raz\u00f3n",
                -8.908190727233887
            ],
            [
                "\u2581submitted",
                -8.865386962890625
            ],
            [
                "\u2581referred",
                -8.841409683227539
            ],
            [
                "\u2581puesto",
                -8.972718238830566
            ],
            [
                "\u2581Director",
                -9.474200248718262
            ],
            [
                "\u2581podr\u00e1",
                -8.973034858703613
            ],
            [
                "\u2581context",
                -8.868760108947754
            ],
            [
                "\u2581procedure",
                -8.849366188049316
            ],
            [
                "J",
                -9.61136245727539
            ],
            [
                "r\u00e9",
                -8.937725067138672
            ],
            [
                "\u2581alguien",
                -8.844063758850098
            ],
            [
                "\u2581mantenimiento",
                -9.008752822875977
            ],
            [
                "\u2581offers",
                -8.906661987304688
            ],
            [
                "Es",
                -8.898482322692871
            ],
            [
                "\u2581leave",
                -8.979872703552246
            ],
            [
                "\u2581establecer",
                -9.017864227294922
            ],
            [
                "\u2581posibilidad",
                -9.001091957092285
            ],
            [
                "\u2581everything",
                -8.993762969970703
            ],
            [
                "\u2581often",
                -8.912046432495117
            ],
            [
                "\u2581according",
                -8.884421348571777
            ],
            [
                "\u2581Tratado",
                -8.989980697631836
            ],
            [
                "\u2581luego",
                -8.922900199890137
            ],
            [
                "\u2581procedimientos",
                -9.029945373535156
            ],
            [
                "\u25812011",
                -9.555100440979004
            ],
            [
                "\u2581econ\u00f3mica",
                -9.002419471740723
            ],
            [
                "\u2581texto",
                -9.0036039352417
            ],
            [
                "\u2581comercio",
                -9.023223876953125
            ],
            [
                "\u2581color",
                -9.45626449584961
            ],
            [
                "\u2581value",
                -8.881546974182129
            ],
            [
                "\u2581gender",
                -8.899550437927246
            ],
            [
                "\u2581side",
                -8.921549797058105
            ],
            [
                "cha",
                -9.47599983215332
            ],
            [
                "cu",
                -9.32581615447998
            ],
            [
                "\u2581discriminaci\u00f3n",
                -9.038939476013184
            ],
            [
                "\u2581guerra",
                -8.97192668914795
            ],
            [
                "\u2581todav\u00eda",
                -8.978062629699707
            ],
            [
                "\u2581car\u00e1cter",
                -9.033371925354004
            ],
            [
                "li",
                -9.527403831481934
            ],
            [
                "\u2581however",
                -8.893089294433594
            ],
            [
                "\u2581\u00e1rea",
                -9.002203941345215
            ],
            [
                "\u2581understand",
                -8.968843460083008
            ],
            [
                "\u2581siento",
                -8.809175491333008
            ],
            [
                "\u2581relacionados",
                -9.053051948547363
            ],
            [
                "\u2581alguna",
                -8.943229675292969
            ],
            [
                "za",
                -9.3938627243042
            ],
            [
                "\u2581technology",
                -8.908989906311035
            ],
            [
                "\u2581\u00e1mbito",
                -9.009883880615234
            ],
            [
                "\u2581Are",
                -9.066364288330078
            ],
            [
                "\u2581offer",
                -8.910414695739746
            ],
            [
                "\u2581Entonces",
                -8.892642974853516
            ],
            [
                "\u2581ning\u00fan",
                -8.979207992553711
            ],
            [
                "\u2581llegar",
                -8.996246337890625
            ],
            [
                "\u2581Treaty",
                -8.883345603942871
            ],
            [
                "\u2581hours",
                -8.95004940032959
            ],
            [
                "\u2581Home",
                -9.168757438659668
            ],
            [
                "\u2581ser\u00eda",
                -8.986227035522461
            ],
            [
                "\u2581price",
                -8.912893295288086
            ],
            [
                "si",
                -9.285759925842285
            ],
            [
                "\u2581Estoy",
                -8.84259033203125
            ],
            [
                "\u2581Desde",
                -9.019303321838379
            ],
            [
                "\u2581proposal",
                -8.88100814819336
            ],
            [
                "and",
                -9.080455780029297
            ],
            [
                "\u2581February",
                -8.921599388122559
            ],
            [
                "\u25814.",
                -9.72581672668457
            ],
            [
                "\u2581Centro",
                -9.100133895874023
            ],
            [
                "\u2581realidad",
                -8.985957145690918
            ],
            [
                "\u2581judicial",
                -9.644417762756348
            ],
            [
                "\u2581nothing",
                -9.031147003173828
            ],
            [
                "&",
                -12.219831466674805
            ],
            [
                "\u2581contexto",
                -9.054060935974121
            ],
            [
                "\u2581known",
                -8.957396507263184
            ],
            [
                "\u2581American",
                -9.01933479309082
            ],
            [
                "\u2581past",
                -8.92771053314209
            ],
            [
                "\u2581Then",
                -9.041488647460938
            ],
            [
                "\u2581Parties",
                -8.907015800476074
            ],
            [
                "je",
                -9.28017520904541
            ],
            [
                "\u2581relativa",
                -9.014725685119629
            ],
            [
                "\u2581\u00f3rganos",
                -9.0571870803833
            ],
            [
                "\u2581African",
                -8.92233943939209
            ],
            [
                "\u2581justicia",
                -9.039593696594238
            ],
            [
                "\u2581games",
                -8.989208221435547
            ],
            [
                "\u2581Am\u00e9rica",
                -9.071473121643066
            ],
            [
                "\u2581Tu",
                -9.126160621643066
            ],
            [
                "\u2581quiere",
                -8.893824577331543
            ],
            [
                "\u2581eran",
                -9.05070972442627
            ],
            [
                "\u2581air",
                -8.947257995605469
            ],
            [
                "\u2581consideration",
                -8.90571117401123
            ],
            [
                "\u2581logo",
                -9.43267822265625
            ],
            [
                "\u2581minutos",
                -9.014579772949219
            ],
            [
                "\u2581igual",
                -9.002412796020508
            ],
            [
                "\u2581Annex",
                -8.897805213928223
            ],
            [
                "\u2581crecimiento",
                -9.041624069213867
            ],
            [
                "\u2581dis",
                -9.857102394104004
            ],
            [
                "\u2581By",
                -9.016936302185059
            ],
            [
                "ch",
                -9.549531936645508
            ],
            [
                "\u2581ayudar",
                -9.032157897949219
            ],
            [
                "\u2581later",
                -8.991694450378418
            ],
            [
                "emos",
                -8.948131561279297
            ],
            [
                "\u2581voy",
                -8.850052833557129
            ],
            [
                "\u2581follow",
                -8.921731948852539
            ],
            [
                "\u2581Ni",
                -9.28552532196045
            ],
            [
                "\u25812012",
                -9.630480766296387
            ],
            [
                ".5",
                -9.817715644836426
            ],
            [
                "\u2581workers",
                -8.931609153747559
            ],
            [
                "\u2581type",
                -8.935957908630371
            ],
            [
                "\u2581war",
                -8.968274116516113
            ],
            [
                "\u2581note",
                -8.952199935913086
            ],
            [
                "ness",
                -9.032441139221191
            ],
            [
                "\u2581August",
                -8.990049362182617
            ],
            [
                "\u2581Who",
                -9.116144180297852
            ],
            [
                "son",
                -9.79301643371582
            ],
            [
                "ist",
                -9.264957427978516
            ],
            [
                "\u2581juegos",
                -9.117828369140625
            ],
            [
                "\u2581econ\u00f3mico",
                -9.060609817504883
            ],
            [
                "\u2581seen",
                -9.009248733520508
            ],
            [
                "\u2581Man",
                -9.551799774169922
            ],
            [
                "\u2581Be",
                -9.39763355255127
            ],
            [
                "ck",
                -9.363974571228027
            ],
            [
                "\u2581High",
                -8.98880672454834
            ],
            [
                "ir",
                -9.520890235900879
            ],
            [
                "\u2581referencia",
                -9.057326316833496
            ],
            [
                "\u2581criminal",
                -9.071756362915039
            ],
            [
                "\u2581gas",
                -9.590798377990723
            ],
            [
                "\u2581growth",
                -8.94661808013916
            ],
            [
                "\u2581pobreza",
                -9.07007884979248
            ],
            [
                "\u2581nature",
                -8.941632270812988
            ],
            [
                "ada",
                -9.250176429748535
            ],
            [
                "\u2581pertinentes",
                -9.078486442565918
            ],
            [
                "\u2581building",
                -8.95362377166748
            ],
            [
                "\u2581Or",
                -9.484447479248047
            ],
            [
                "\u2581creo",
                -8.905269622802734
            ],
            [
                "\u2581\u00faltimos",
                -9.074237823486328
            ],
            [
                "\u2581pues",
                -9.05733585357666
            ],
            [
                "\u2581words",
                -8.987020492553711
            ],
            [
                "\u2581knowledge",
                -8.955283164978027
            ],
            [
                "\u2581g",
                -9.548291206359863
            ],
            [
                "\u2581dado",
                -9.045845031738281
            ],
            [
                "\u2581trabajadores",
                -9.091782569885254
            ],
            [
                "\u2581\u00fanico",
                -9.012227058410645
            ],
            [
                "\u2581tecnolog\u00eda",
                -9.058082580566406
            ],
            [
                "ri",
                -9.455025672912598
            ],
            [
                "\u2581status",
                -8.957367897033691
            ],
            [
                ".4",
                -9.877008438110352
            ],
            [
                "\u2581Jes\u00fas",
                -9.091633796691895
            ],
            [
                "\u2581After",
                -8.992074012756348
            ],
            [
                "\u2581nuestras",
                -9.07125473022461
            ],
            [
                "ka",
                -9.677318572998047
            ],
            [
                "ie",
                -9.472322463989258
            ],
            [
                "\u2581rate",
                -8.949970245361328
            ],
            [
                "\u2581low",
                -8.96497917175293
            ],
            [
                "\u2581increased",
                -8.960049629211426
            ],
            [
                "\u2581permite",
                -9.080036163330078
            ],
            [
                "\u2581casi",
                -9.034126281738281
            ],
            [
                "\u2581Argentina",
                -9.633539199829102
            ],
            [
                "\u2581\u00c9l",
                -8.98770809173584
            ],
            [
                "\u2581stay",
                -9.03112506866455
            ],
            [
                "\u2581declaraci\u00f3n",
                -9.081700325012207
            ],
            [
                "\u2581won",
                -9.116231918334961
            ],
            [
                "\u2581\u2018",
                -8.920969009399414
            ],
            [
                "\u2581located",
                -9.006204605102539
            ],
            [
                "\u2581camino",
                -9.024674415588379
            ],
            [
                "\u2581niveles",
                -9.103058815002441
            ],
            [
                "_",
                -9.636735916137695
            ],
            [
                "\u2581US",
                -9.215112686157227
            ],
            [
                "\u2581cuales",
                -9.095836639404297
            ],
            [
                "\u2581Fund",
                -8.94981861114502
            ],
            [
                "\u2581Son",
                -9.491920471191406
            ],
            [
                "\u2581consider",
                -8.953981399536133
            ],
            [
                "\u2581all\u00ed",
                -8.960853576660156
            ],
            [
                "\u2581site",
                -8.97189998626709
            ],
            [
                "\u2581p\u00e1gina",
                -9.07152271270752
            ],
            [
                "\u2581effect",
                -8.945915222167969
            ],
            [
                "\u2581reuniones",
                -9.097396850585938
            ],
            [
                "\u2581t\u00e9cnica",
                -9.079496383666992
            ],
            [
                "\u2581Vi",
                -9.516519546508789
            ],
            [
                "\u2581alta",
                -9.057323455810547
            ],
            [
                "\u2581junto",
                -9.080497741699219
            ],
            [
                "\u2581aplicar",
                -9.116096496582031
            ],
            [
                "\u2581luz",
                -9.0739164352417
            ],
            [
                "ni",
                -9.439597129821777
            ],
            [
                "\u2581UN",
                -9.293509483337402
            ],
            [
                "\u2581realizar",
                -9.096227645874023
            ],
            [
                "\u2581febrero",
                -9.124556541442871
            ],
            [
                "\u2581environmental",
                -8.960183143615723
            ],
            [
                "\u2581game",
                -9.016175270080566
            ],
            [
                "\u2581procedures",
                -8.982193946838379
            ],
            [
                "\u2581provisional",
                -9.597859382629395
            ],
            [
                "\u2581Bar",
                -9.82578182220459
            ],
            [
                "\u2581mantener",
                -9.07820987701416
            ],
            [
                "\u2581representantes",
                -9.113668441772461
            ],
            [
                "\u25812013",
                -9.632601737976074
            ],
            [
                "\u2581relating",
                -8.964277267456055
            ],
            [
                "sen",
                -9.593992233276367
            ],
            [
                "\u2581amor",
                -9.009405136108398
            ],
            [
                "\u2581cuerpo",
                -9.058283805847168
            ],
            [
                "\u2581ask",
                -9.053669929504395
            ],
            [
                "\u2581Women",
                -9.010980606079102
            ],
            [
                "\u2581Thank",
                -9.135307312011719
            ],
            [
                "\u2581palabras",
                -9.088193893432617
            ],
            [
                "\u2581Some",
                -9.017166137695312
            ],
            [
                "\u2581eres",
                -8.90539836883545
            ],
            [
                "\u2581See",
                -9.045777320861816
            ],
            [
                "ur",
                -9.811259269714355
            ],
            [
                "\u2581Ministerio",
                -9.124491691589355
            ],
            [
                "\u2581operations",
                -8.983549118041992
            ],
            [
                "\u2581Cuba",
                -9.696929931640625
            ],
            [
                "\u2581sustainable",
                -8.980488777160645
            ],
            [
                "\u2581existing",
                -8.9849271774292
            ],
            [
                "\u2581involved",
                -8.994690895080566
            ],
            [
                "\u2581utilizar",
                -9.13221263885498
            ],
            [
                "\u2581actividad",
                -9.12129020690918
            ],
            [
                "\u2581property",
                -9.000275611877441
            ],
            [
                "\u2581went",
                -9.095911026000977
            ],
            [
                "\u2581coraz\u00f3n",
                -9.064343452453613
            ],
            [
                "\u2581needed",
                -9.00787353515625
            ],
            [
                "\u2581single",
                -8.997176170349121
            ],
            [
                "\u2581equipment",
                -8.994544982910156
            ],
            [
                "\u2581decided",
                -9.003235816955566
            ],
            [
                "\u2581documentos",
                -9.13709545135498
            ],
            [
                "\u201d,",
                -9.715470314025879
            ],
            [
                "\u2581conflict",
                -8.984639167785645
            ],
            [
                "\u2581marketing",
                -9.500125885009766
            ],
            [
                "\u2581funcionarios",
                -9.126827239990234
            ],
            [
                "\u2581responsible",
                -9.002164840698242
            ],
            [
                "ven",
                -9.649901390075684
            ],
            [
                "\u2581regular",
                -9.287619590759277
            ],
            [
                "\u2581igualdad",
                -9.13146686553955
            ],
            [
                "\u2581hope",
                -9.043365478515625
            ],
            [
                "\u2581practice",
                -8.988053321838379
            ],
            [
                "\u2581poverty",
                -8.997288703918457
            ],
            [
                "see",
                -9.016555786132812
            ],
            [
                "\u2581Bien",
                -8.90000057220459
            ],
            [
                "\u2581noted",
                -9.025064468383789
            ],
            [
                "\u2581India",
                -9.728827476501465
            ],
            [
                "\u2581responsibility",
                -8.99262809753418
            ],
            [
                "\u2581puedan",
                -9.124602317810059
            ],
            [
                "vi",
                -9.507701873779297
            ],
            [
                "\u2581estudios",
                -9.150875091552734
            ],
            [
                "\u2581cosa",
                -8.970315933227539
            ],
            [
                "\u2581tales",
                -9.131895065307617
            ],
            [
                "\u2581big",
                -9.102967262268066
            ],
            [
                "\u2581Fondo",
                -9.119354248046875
            ],
            [
                "\u2581funciones",
                -9.147397994995117
            ],
            [
                "\u2581direcci\u00f3n",
                -9.114853858947754
            ],
            [
                "\u2581opini\u00f3n",
                -9.112159729003906
            ],
            [
                "\u2581coming",
                -9.104410171508789
            ],
            [
                "\u2581f",
                -9.422578811645508
            ],
            [
                ">",
                -100
            ],
            [
                "\u2581Add",
                -9.1990966796875
            ],
            [
                "10",
                -9.717850685119629
            ],
            [
                "ism",
                -9.150474548339844
            ],
            [
                "\u2581standards",
                -9.022537231445312
            ],
            [
                "\u2581mejores",
                -9.137855529785156
            ],
            [
                "\u2581Other",
                -8.996222496032715
            ],
            [
                "\u2581precio",
                -9.105321884155273
            ],
            [
                "\u2581face",
                -9.059203147888184
            ],
            [
                "ion",
                -9.241118431091309
            ],
            [
                "po",
                -9.643558502197266
            ],
            [
                "\u2581oportunidad",
                -9.08657455444336
            ],
            [
                "\u2581gobiernos",
                -9.131949424743652
            ],
            [
                "In",
                -9.550582885742188
            ],
            [
                "\u2581cumplimiento",
                -9.135993003845215
            ],
            [
                "\u2581pay",
                -9.046411514282227
            ],
            [
                "\u2581Todos",
                -9.086846351623535
            ],
            [
                "ge",
                -9.758177757263184
            ],
            [
                "\u2581head",
                -9.079564094543457
            ],
            [
                "\u2581OF",
                -8.996932983398438
            ],
            [
                "pro",
                -9.872222900390625
            ],
            [
                ",\"",
                -9.282543182373047
            ],
            [
                "\u2581varias",
                -9.148219108581543
            ],
            [
                "\u2581madre",
                -8.98765754699707
            ],
            [
                "\u2581conjunto",
                -9.139505386352539
            ],
            [
                ".3",
                -9.987798690795898
            ],
            [
                "\u2581soluci\u00f3n",
                -9.132365226745605
            ],
            [
                "\u2581From",
                -9.06386661529541
            ],
            [
                "\u2581enough",
                -9.103106498718262
            ],
            [
                "\u2581serious",
                -9.033008575439453
            ],
            [
                "\u2581carried",
                -9.005288124084473
            ],
            [
                "\u2581LA",
                -9.220459938049316
            ],
            [
                "\u2581Lord",
                -9.103458404541016
            ],
            [
                "\u2581office",
                -9.054299354553223
            ],
            [
                "\u2581v\u00edctimas",
                -9.159619331359863
            ],
            [
                "\u2581significa",
                -9.082815170288086
            ],
            [
                "\u2581vamos",
                -8.951584815979004
            ],
            [
                "\u2581Spain",
                -9.063161849975586
            ],
            [
                "\u2581especiales",
                -9.155658721923828
            ],
            [
                "\u2581Christ",
                -9.05429744720459
            ],
            [
                "\u2581self",
                -9.03497314453125
            ],
            [
                "ntes",
                -9.23993968963623
            ],
            [
                "\u2581organization",
                -9.007160186767578
            ],
            [
                "men",
                -9.890829086303711
            ],
            [
                "\u2581S\u00f3lo",
                -8.940746307373047
            ],
            [
                "\u2581purpose",
                -8.99575138092041
            ],
            [
                "\u2581actions",
                -9.055066108703613
            ],
            [
                "\u2581Good",
                -9.217134475708008
            ],
            [
                "\u2581recent",
                -9.033123970031738
            ],
            [
                "\u2581early",
                -9.057770729064941
            ],
            [
                "\u2581relaciones",
                -9.148275375366211
            ],
            [
                "\u2581poner",
                -9.107767105102539
            ],
            [
                "\u2581principles",
                -9.025962829589844
            ],
            [
                "\u2581Ma",
                -9.447970390319824
            ],
            [
                "\u2581changes",
                -9.068671226501465
            ],
            [
                "\u2581administraci\u00f3n",
                -9.156598091125488
            ],
            [
                "\u25811999",
                -9.621620178222656
            ],
            [
                "\u2581Action",
                -9.015615463256836
            ],
            [
                "\u2581reducir",
                -9.16129207611084
            ],
            [
                "\u2581cargo",
                -9.237629890441895
            ],
            [
                "tro",
                -9.761119842529297
            ],
            [
                "\u2581ah\u00ed",
                -8.974823951721191
            ],
            [
                "\u2581section",
                -9.010004997253418
            ],
            [
                "\u2581agreed",
                -9.027449607849121
            ],
            [
                "\u2581instrumentos",
                -9.159422874450684
            ],
            [
                "\u2581coordinaci\u00f3n",
                -9.166324615478516
            ],
            [
                "ista",
                -9.43552303314209
            ],
            [
                "\u2581l",
                -9.686454772949219
            ],
            [
                "\u2581companies",
                -9.035176277160645
            ],
            [
                "\u2581ago",
                -9.117083549499512
            ],
            [
                "\u2581elementos",
                -9.182316780090332
            ],
            [
                "\u2581regarding",
                -9.037795066833496
            ],
            [
                "\u2581Ra",
                -9.465693473815918
            ],
            [
                "\u2581category",
                -9.022804260253906
            ],
            [
                "at",
                -9.470379829406738
            ],
            [
                "\u2581France",
                -9.130669593811035
            ],
            [
                "\u2581ma\u00f1ana",
                -9.029430389404297
            ],
            [
                "\u2581employment",
                -9.03823471069336
            ],
            [
                "\u2581Espa\u00f1a",
                -9.173906326293945
            ],
            [
                "ad",
                -9.731764793395996
            ],
            [
                "\u2581true",
                -9.100358963012695
            ],
            [
                "vo",
                -9.62816047668457
            ],
            [
                "\u2581obstante",
                -9.168059349060059
            ],
            [
                "\u2581questions",
                -9.079724311828613
            ],
            [
                "\u2581concern",
                -9.031301498413086
            ],
            [
                "CN",
                -9.760676383972168
            ],
            [
                "ismo",
                -9.31411075592041
            ],
            [
                "Te",
                -9.092918395996094
            ],
            [
                "\u2581safety",
                -9.030261039733887
            ],
            [
                "\u2581significant",
                -9.041813850402832
            ],
            [
                "\u2581Junta",
                -9.18901538848877
            ],
            [
                "\u2581sostenible",
                -9.172989845275879
            ],
            [
                "\u2581Mo",
                -9.678728103637695
            ],
            [
                "\u2581Department",
                -9.042098999023438
            ],
            [
                "\u2581buen",
                -9.079288482666016
            ],
            [
                "\u2581aspectos",
                -9.176695823669434
            ],
            [
                "6",
                -9.202394485473633
            ],
            [
                "\u2581Sa",
                -9.506579399108887
            ],
            [
                "\u2581mandato",
                -9.172099113464355
            ],
            [
                "\u2581mano",
                -9.109631538391113
            ],
            [
                "\u2581causa",
                -9.162238121032715
            ],
            [
                "rio",
                -9.570578575134277
            ],
            [
                "jo",
                -9.500723838806152
            ],
            [
                "\u2581says",
                -9.155355453491211
            ],
            [
                "\u2581monitoring",
                -9.053913116455078
            ],
            [
                "\u2581propuestas",
                -9.186609268188477
            ],
            [
                "\u2581semana",
                -9.099007606506348
            ],
            [
                "\u2581representatives",
                -9.063183784484863
            ],
            [
                "\u2581g\u00e9nero",
                -9.205948829650879
            ],
            [
                "\u2581agencies",
                -9.04858684539795
            ],
            [
                "\u2581itself",
                -9.05827808380127
            ],
            [
                "\u2581pasa",
                -8.973360061645508
            ],
            [
                ".\u201d",
                -9.394268035888672
            ],
            [
                "che",
                -9.558099746704102
            ],
            [
                "\u2581delegation",
                -9.02861213684082
            ],
            [
                "\u2581interior",
                -9.368200302124023
            ],
            [
                "\u2581Barcelona",
                -9.76372241973877
            ],
            [
                "\u2581realmente",
                -9.088032722473145
            ],
            [
                "\u25813,",
                -10.185186386108398
            ],
            [
                "\u2581ellas",
                -9.242684364318848
            ],
            [
                "\u2581greater",
                -9.048048973083496
            ],
            [
                "\u2581apply",
                -9.059751510620117
            ],
            [
                "\u2581gubernamentales",
                -9.16987133026123
            ],
            [
                "\u2581contacto",
                -9.18235969543457
            ],
            [
                "\u2581van",
                -9.327951431274414
            ],
            [
                "car",
                -9.588603019714355
            ],
            [
                "\u2581looking",
                -9.169713020324707
            ],
            [
                "\u2581Report",
                -9.108323097229004
            ],
            [
                "\u2581posici\u00f3n",
                -9.191977500915527
            ],
            [
                "\u2581reducci\u00f3n",
                -9.181378364562988
            ],
            [
                "\u2581Working",
                -9.065077781677246
            ],
            [
                "\u2581llevar",
                -9.145635604858398
            ],
            [
                "\u2581industrial",
                -9.649969100952148
            ],
            [
                "\u2581Sra",
                -9.145500183105469
            ],
            [
                "\u2581Ministry",
                -9.094808578491211
            ],
            [
                "\u2581Puede",
                -9.178123474121094
            ],
            [
                "\u2581response",
                -9.060139656066895
            ],
            [
                "um",
                -9.776921272277832
            ],
            [
                "\u2581justice",
                -9.083742141723633
            ],
            [
                "lu",
                -9.739459037780762
            ],
            [
                "\u2581range",
                -9.057062149047852
            ],
            [
                "\u25815.",
                -9.94813060760498
            ],
            [
                "\u2581promoci\u00f3n",
                -9.219005584716797
            ],
            [
                "\u2581evitar",
                -9.19658374786377
            ],
            [
                "\u2581\u00faltima",
                -9.144124031066895
            ],
            [
                "\u2581auto",
                -9.31937313079834
            ],
            [
                "\u2581provision",
                -9.04438304901123
            ],
            [
                "\u2581statement",
                -9.060460090637207
            ],
            [
                "\u2581pregunta",
                -9.153414726257324
            ],
            [
                "\u2581language",
                -9.073570251464844
            ],
            [
                "\u2581hacerlo",
                -9.076640129089355
            ],
            [
                "\u2581tarde",
                -9.086194038391113
            ],
            [
                "\u2581develop",
                -9.06533145904541
            ],
            [
                "\u2581establishment",
                -9.061613082885742
            ],
            [
                "\u2581pacientes",
                -9.189261436462402
            ],
            [
                "\u2581below",
                -9.082013130187988
            ],
            [
                "\u2581Departamento",
                -9.20239543914795
            ],
            [
                "\u2581makes",
                -9.200480461120605
            ],
            [
                "\u2581transport",
                -9.064358711242676
            ],
            [
                "\u2581elegir",
                -9.170977592468262
            ],
            [
                "\u2581share",
                -9.072979927062988
            ],
            [
                "\u2581Spanish",
                -9.119338989257812
            ],
            [
                "\u2581basic",
                -9.06534194946289
            ],
            [
                "\u266a",
                -100
            ],
            [
                "\u2581espera",
                -9.110041618347168
            ],
            [
                "\u2581territorio",
                -9.189508438110352
            ],
            [
                "\u2581contact",
                -9.112711906433105
            ],
            [
                "j",
                -9.751184463500977
            ],
            [
                "ina",
                -9.693074226379395
            ],
            [
                "\u2581job",
                -9.15466594696045
            ],
            [
                "\u2581asked",
                -9.136734008789062
            ],
            [
                "\u2581Reino",
                -9.207738876342773
            ],
            [
                "\u00f1",
                -11.085474967956543
            ],
            [
                "\u2581continued",
                -9.10205078125
            ],
            [
                "\u2581either",
                -9.111754417419434
            ],
            [
                "\u2581create",
                -9.069761276245117
            ],
            [
                "\u2581fuerza",
                -9.16087818145752
            ],
            [
                "\u2581sorry",
                -9.266796112060547
            ],
            [
                "\u2581Tengo",
                -9.004210472106934
            ],
            [
                "\u2581text",
                -9.083276748657227
            ],
            [
                "\u2581estrategia",
                -9.206696510314941
            ],
            [
                "\u2581opinion",
                -9.06872844696045
            ],
            [
                "\u2581delegaci\u00f3n",
                -9.2046537399292
            ],
            [
                "\u2581rural",
                -9.477583885192871
            ],
            [
                "qu\u00e9",
                -9.079495429992676
            ],
            [
                "\u2581Bank",
                -9.227693557739258
            ],
            [
                "\u2581ciudadanos",
                -9.21481990814209
            ],
            [
                "\u2581return",
                -9.085905075073242
            ],
            [
                "\u2581team",
                -9.135819435119629
            ],
            [
                "\u2581competencia",
                -9.192065238952637
            ],
            [
                "\u2581themselves",
                -9.097187042236328
            ],
            [
                "\u2581r\u00e9gimen",
                -9.21629810333252
            ],
            [
                "\u2581segunda",
                -9.21886920928955
            ],
            [
                "\u2581lack",
                -9.097773551940918
            ],
            [
                "fa",
                -9.732166290283203
            ],
            [
                "\u2581Here",
                -9.233202934265137
            ],
            [
                "\u2581Colombia",
                -9.777029037475586
            ],
            [
                "\u2581prices",
                -9.113243103027344
            ],
            [
                "\u2581minutes",
                -9.159335136413574
            ],
            [
                "\u2581cantidad",
                -9.223528861999512
            ],
            [
                "\u2581Of",
                -9.231404304504395
            ],
            [
                "\u2581Pre",
                -9.911754608154297
            ],
            [
                "\u2581John",
                -9.592613220214844
            ],
            [
                "\u2581agosto",
                -9.243170738220215
            ],
            [
                "\u2581utilizaci\u00f3n",
                -9.226805686950684
            ],
            [
                "\u2581visit",
                -9.128974914550781
            ],
            [
                "\u2581decisions",
                -9.12597370147705
            ],
            [
                "\u2581Information",
                -9.129533767700195
            ],
            [
                "\u2581::",
                -9.906634330749512
            ],
            [
                "5",
                -9.148374557495117
            ],
            [
                "\u2581trabajar",
                -9.196709632873535
            ],
            [
                "\u2581obligaciones",
                -9.23037338256836
            ],
            [
                "ty",
                -9.556173324584961
            ],
            [
[...]
